unsigned char final_full_integer_quant_tflite[] = {
  0x1c, 0x00, 0x00, 0x00, 0x54, 0x46, 0x4c, 0x33, 0x00, 0x00, 0x12, 0x00,
  0x1c, 0x00, 0x04, 0x00, 0x08, 0x00, 0x0c, 0x00, 0x10, 0x00, 0x14, 0x00,
  0x00, 0x00, 0x18, 0x00, 0x12, 0x00, 0x00, 0x00, 0x03, 0x00, 0x00, 0x00,
  0x80, 0x16, 0x00, 0x00, 0x84, 0x0e, 0x00, 0x00, 0x6c, 0x0e, 0x00, 0x00,
  0x3c, 0x00, 0x00, 0x00, 0x04, 0x00, 0x00, 0x00, 0x01, 0x00, 0x00, 0x00,
  0x0c, 0x00, 0x00, 0x00, 0x08, 0x00, 0x0c, 0x00, 0x04, 0x00, 0x08, 0x00,
  0x08, 0x00, 0x00, 0x00, 0x08, 0x00, 0x00, 0x00, 0x0c, 0x00, 0x00, 0x00,
  0x13, 0x00, 0x00, 0x00, 0x6d, 0x69, 0x6e, 0x5f, 0x72, 0x75, 0x6e, 0x74,
  0x69, 0x6d, 0x65, 0x5f, 0x76, 0x65, 0x72, 0x73, 0x69, 0x6f, 0x6e, 0x00,
  0x0d, 0x00, 0x00, 0x00, 0x1c, 0x0e, 0x00, 0x00, 0x08, 0x0e, 0x00, 0x00,
  0x7c, 0x0d, 0x00, 0x00, 0x28, 0x0d, 0x00, 0x00, 0x14, 0x0d, 0x00, 0x00,
  0x70, 0x02, 0x00, 0x00, 0x9c, 0x00, 0x00, 0x00, 0x78, 0x00, 0x00, 0x00,
  0x6c, 0x00, 0x00, 0x00, 0x58, 0x00, 0x00, 0x00, 0x44, 0x00, 0x00, 0x00,
  0x30, 0x00, 0x00, 0x00, 0x04, 0x00, 0x00, 0x00, 0xb6, 0xf2, 0xff, 0xff,
  0x04, 0x00, 0x00, 0x00, 0x10, 0x00, 0x00, 0x00, 0x31, 0x2e, 0x31, 0x34,
  0x2e, 0x30, 0x00, 0x00, 0x00, 0x00, 0x00, 0x00, 0x00, 0x00, 0x00, 0x00,
  0x00, 0x00, 0x00, 0x00, 0x00, 0x00, 0x00, 0x00, 0x00, 0x00, 0x00, 0x00,
  0x6c, 0xf1, 0xff, 0xff, 0x00, 0x00, 0x00, 0x00, 0x00, 0x00, 0x00, 0x00,
  0x00, 0x00, 0x00, 0x00, 0x7c, 0xf1, 0xff, 0xff, 0x00, 0x00, 0x00, 0x00,
  0x00, 0x00, 0x00, 0x00, 0x00, 0x00, 0x00, 0x00, 0x8c, 0xf1, 0xff, 0xff,
  0x00, 0x00, 0x00, 0x00, 0x00, 0x00, 0x00, 0x00, 0x00, 0x00, 0x00, 0x00,
  0x9c, 0xf1, 0xff, 0xff, 0x00, 0x00, 0x00, 0x00, 0x16, 0xf3, 0xff, 0xff,
  0x04, 0x00, 0x00, 0x00, 0x0f, 0x00, 0x00, 0x00, 0xa7, 0x84, 0x73, 0x8f,
  0x7f, 0xaa, 0x50, 0x4a, 0x44, 0xb1, 0xaa, 0x84, 0xb6, 0xbe, 0x45, 0x00,
  0x00, 0x00, 0x00, 0x00, 0x36, 0xf3, 0xff, 0xff, 0x04, 0x00, 0x00, 0x00,
  0xc2, 0x01, 0x00, 0x00, 0x19, 0x62, 0xd3, 0x50, 0xf6, 0x1c, 0x38, 0x33,
  0xdd, 0x62, 0xcf, 0x24, 0xe8, 0x28, 0x19, 0xd9, 0x07, 0x0b, 0xdd, 0x16,
  0xd6, 0x0a, 0x4e, 0x0f, 0x3e, 0x1f, 0x2a, 0x50, 0x11, 0xd4, 0xd7, 0x5f,
  0xdc, 0x2b, 0xf4, 0x4c, 0x06, 0xe1, 0xf5, 0x15, 0xda, 0x22, 0xeb, 0x22,
  0xe1, 0xff, 0x1b, 0x1b, 0x29, 0x50, 0xf3, 0xe8, 0xf2, 0x0c, 0xe0, 0x33,
  0x1e, 0x1d, 0xf2, 0x00, 0x15, 0xf2, 0x33, 0xde, 0x5b, 0xde, 0xf1, 0xdb,
  0x1f, 0x0c, 0x32, 0xc8, 0xee, 0xf2, 0x06, 0xcf, 0xdd, 0xd8, 0xc8, 0xd0,
  0x27, 0x32, 0xdf, 0xdf, 0x00, 0xce, 0x27, 0x1c, 0x24, 0x1e, 0xfc, 0x59,
  0xd9, 0x41, 0x01, 0x31, 0x31, 0x1f, 0xfc, 0x58, 0xe5, 0xff, 0x04, 0xcb,
  0xff, 0xf4, 0x3e, 0x57, 0x19, 0x4f, 0xd5, 0x09, 0x45, 0x23, 0x26, 0xe8,
  0xcb, 0x06, 0xe7, 0xd7, 0xdc, 0xc3, 0x2e, 0xe8, 0x47, 0xd6, 0xe4, 0xf6,
  0x20, 0xd2, 0x13, 0xbd, 0x42, 0x12, 0x01, 0xd9, 0xca, 0xc1, 0xd7, 0xe1,
  0x1e, 0x3c, 0xe5, 0xfa, 0x2a, 0xbf, 0xfc, 0x01, 0x2e, 0x10, 0x18, 0x20,
  0xf2, 0x5d, 0xf4, 0x44, 0x02, 0xe6, 0xd4, 0x0c, 0x23, 0x1b, 0x03, 0x22,
  0xcb, 0xda, 0x1f, 0x55, 0x1a, 0x3c, 0xdf, 0x04, 0xf5, 0x20, 0xe4, 0x57,
  0x29, 0x4a, 0x13, 0xf4, 0xd9, 0xec, 0x1c, 0xde, 0x7f, 0xe0, 0xb0, 0xc9,
  0x22, 0xca, 0x11, 0x07, 0x31, 0xc6, 0xf4, 0xb3, 0x08, 0xeb, 0xdd, 0xda,
  0x20, 0x14, 0x01, 0x35, 0x06, 0xb4, 0xd8, 0xed, 0x3c, 0xf9, 0x34, 0xef,
  0x5b, 0xe8, 0x0d, 0xd0, 0xd3, 0x1a, 0xf6, 0xb9, 0x38, 0xff, 0x1c, 0x21,
  0xd5, 0x23, 0xc9, 0xfe, 0x26, 0xc0, 0x41, 0x30, 0xf5, 0x14, 0xd1, 0x0c,
  0xce, 0xe2, 0x23, 0x36, 0x0f, 0xf1, 0x0e, 0xff, 0x21, 0x09, 0xd3, 0xe4,
  0x30, 0xca, 0xe1, 0xc2, 0x47, 0xca, 0x23, 0xcf, 0x14, 0xd3, 0xdd, 0xe8,
  0x4a, 0x11, 0xda, 0xe0, 0xfd, 0xce, 0x0d, 0x0a, 0x26, 0x01, 0x33, 0x38,
  0xf1, 0x16, 0xf9, 0x0e, 0x06, 0xcb, 0xd0, 0x42, 0xda, 0x1f, 0xfd, 0x00,
  0x1e, 0xfe, 0x1a, 0x16, 0xcf, 0x61, 0x1a, 0xeb, 0x3f, 0x0e, 0x36, 0x38,
  0xe2, 0x40, 0xe8, 0xe3, 0x37, 0x18, 0xdc, 0x69, 0xfd, 0x2b, 0xf7, 0x0f,
  0xed, 0x68, 0xf7, 0x27, 0xf2, 0xcd, 0xf1, 0x1c, 0xd3, 0x4b, 0x3b, 0x5c,
  0xf1, 0xf2, 0x3f, 0x17, 0x1f, 0x22, 0xe8, 0xf9, 0xf1, 0xef, 0xd0, 0x1e,
  0xfa, 0x4d, 0xe8, 0x51, 0x34, 0xd8, 0xd7, 0x06, 0xdc, 0x0f, 0xf5, 0xe5,
  0xd6, 0xc5, 0x0b, 0x3e, 0x03, 0x3e, 0xfb, 0xd8, 0x3e, 0xc7, 0x06, 0x0e,
  0x33, 0x34, 0xe4, 0xf9, 0xd8, 0x3b, 0xd5, 0xf9, 0xd2, 0x04, 0x2c, 0xe9,
  0xd6, 0x6c, 0x20, 0x25, 0x0c, 0xeb, 0xcf, 0x03, 0xd5, 0x1f, 0xe5, 0x33,
  0xfc, 0xdc, 0x1d, 0x26, 0x21, 0x1f, 0xda, 0x49, 0x02, 0x1f, 0xce, 0x31,
  0xfd, 0x62, 0xe9, 0x13, 0xff, 0xd3, 0xe8, 0x5a, 0x1c, 0xfa, 0xd5, 0xf8,
  0x16, 0x1c, 0x23, 0x5e, 0x1d, 0x5d, 0xd2, 0x06, 0x33, 0xec, 0xf6, 0x39,
  0x2f, 0x00, 0xd4, 0x08, 0x18, 0xe1, 0x50, 0xf2, 0x11, 0xf9, 0xf4, 0xe5,
  0x31, 0xbd, 0x00, 0xdc, 0x22, 0xda, 0xff, 0xef, 0xec, 0xf9, 0xde, 0xe7,
  0x3c, 0x34, 0x0b, 0xe3, 0xc3, 0x04, 0xfc, 0xd1, 0x2c, 0xec, 0x00, 0x00,
  0x06, 0xf5, 0xff, 0xff, 0x04, 0x00, 0x00, 0x00, 0x8c, 0x0a, 0x00, 0x00,
  0xc5, 0xd6, 0xf9, 0xdd, 0xf7, 0x1a, 0xe9, 0x0f, 0x1f, 0xc5, 0x3f, 0xd5,
  0xcd, 0xb4, 0x13, 0x43, 0xcf, 0xb8, 0x1e, 0xbb, 0x1c, 0xff, 0x3c, 0x1b,
  0xd8, 0x04, 0xb5, 0xe7, 0xd8, 0xc8, 0x45, 0x35, 0xc3, 0x41, 0xf8, 0xe0,
  0x0b, 0x43, 0x23, 0xf9, 0x02, 0x12, 0xc6, 0xd7, 0x37, 0xd1, 0xc1, 0xf5,
  0xed, 0xda, 0xfd, 0x2a, 0xf6, 0xcb, 0x12, 0xcf, 0x12, 0x22, 0x06, 0x30,
  0x0d, 0xf3, 0xe0, 0xdb, 0x28, 0xe9, 0x0b, 0x02, 0xe3, 0xdc, 0xf6, 0xdf,
  0x19, 0xc5, 0xcd, 0xf7, 0xdb, 0xf3, 0xfe, 0xdd, 0x3b, 0x01, 0x1b, 0xde,
  0xec, 0xb8, 0xe7, 0xf7, 0x11, 0x37, 0x0e, 0x0e, 0x29, 0x2d, 0xf1, 0x26,
  0x19, 0x43, 0xda, 0x36, 0xf5, 0x0e, 0x23, 0xdc, 0x39, 0xbf, 0xf7, 0x31,
  0xf0, 0xc8, 0x30, 0x32, 0x6f, 0x16, 0xc6, 0xcd, 0x30, 0xf3, 0xee, 0x22,
  0xdd, 0x1f, 0xff, 0x03, 0xf4, 0xd6, 0x44, 0xdd, 0xe9, 0xe9, 0x51, 0xbe,
  0xe1, 0x06, 0x38, 0xce, 0xae, 0xa9, 0x01, 0xbf, 0xf9, 0x00, 0xc6, 0x3c,
  0xce, 0x27, 0x8f, 0x9c, 0xf9, 0xe3, 0x00, 0x53, 0xd5, 0xbd, 0x1c, 0x0f,
  0x06, 0xe9, 0x92, 0xbc, 0x1e, 0xd8, 0x13, 0x24, 0xe1, 0x8b, 0xc2, 0xd0,
  0xbb, 0x54, 0x22, 0x1c, 0xb4, 0xc5, 0xff, 0xc5, 0xca, 0x2c, 0x02, 0x25,
  0x8f, 0xbb, 0xcd, 0x3f, 0xd1, 0x1e, 0x1b, 0x16, 0x01, 0x17, 0x42, 0xc6,
  0x03, 0x2b, 0x16, 0x01, 0xf6, 0x2b, 0x03, 0xfa, 0xef, 0x2b, 0x09, 0xf7,
  0x06, 0x0b, 0x0c, 0xf1, 0xd0, 0x4d, 0xb8, 0xf9, 0xe3, 0x37, 0x39, 0xa9,
  0xc0, 0xb9, 0xd6, 0x0a, 0xef, 0xf2, 0x39, 0x1c, 0x3a, 0xed, 0x0d, 0x25,
  0x2d, 0xfd, 0x26, 0xe8, 0x15, 0xb1, 0xd7, 0xbd, 0x48, 0x77, 0x37, 0xde,
  0xee, 0x9c, 0x1a, 0x21, 0xa8, 0xe9, 0xf3, 0xed, 0x4e, 0x08, 0xfe, 0x25,
  0xa6, 0xe6, 0x6c, 0x5a, 0xf9, 0xf3, 0x3c, 0x31, 0xf8, 0xef, 0x68, 0x0a,
  0x55, 0x5a, 0xdd, 0x28, 0x13, 0x42, 0x43, 0x5c, 0x30, 0xe3, 0x2c, 0x56,
  0x22, 0x31, 0xc6, 0xf9, 0xfb, 0x34, 0xcb, 0xf8, 0x5b, 0xdf, 0x43, 0x04,
  0x2f, 0xc4, 0xda, 0xff, 0x02, 0x4a, 0xd9, 0xc2, 0xeb, 0xf6, 0x13, 0x22,
  0xb1, 0xe6, 0x07, 0x47, 0x01, 0xc3, 0x0e, 0x1e, 0xb9, 0xcc, 0x3c, 0x02,
  0xdd, 0x19, 0xfd, 0xc4, 0xdc, 0xfa, 0xe5, 0xf9, 0xb7, 0x63, 0xc3, 0xba,
  0xca, 0x09, 0xed, 0xb4, 0x24, 0xef, 0xf5, 0x14, 0xcc, 0xda, 0xd9, 0x11,
  0xc8, 0x1a, 0x0f, 0xf2, 0x26, 0xff, 0xda, 0x47, 0xbd, 0x2f, 0xa9, 0xf6,
  0x02, 0xfb, 0xbd, 0xfd, 0xed, 0xf4, 0xa5, 0xc7, 0xeb, 0x5c, 0xd5, 0x0f,
  0xb9, 0xa4, 0xf0, 0x08, 0x0b, 0x28, 0x18, 0xea, 0xea, 0x0d, 0x1a, 0xf8,
  0xf9, 0x22, 0xf2, 0x4c, 0x1a, 0xf8, 0xa3, 0xdb, 0xca, 0xda, 0x3d, 0x15,
  0x13, 0x00, 0x06, 0xaf, 0x16, 0x40, 0xff, 0xd6, 0xf6, 0xc4, 0xff, 0xfd,
  0xee, 0x12, 0x03, 0xf9, 0xc9, 0x52, 0x68, 0x05, 0x48, 0x28, 0x11, 0x1e,
  0x05, 0xcc, 0xdf, 0xbb, 0x24, 0xdc, 0x13, 0xe8, 0x46, 0x1a, 0x15, 0xbd,
  0x1f, 0xb1, 0xca, 0x4c, 0x89, 0xd8, 0x20, 0x21, 0x31, 0x34, 0x4e, 0x38,
  0xfd, 0xbb, 0xf6, 0x19, 0xcf, 0xe8, 0x02, 0xdc, 0xe2, 0xfd, 0x21, 0x59,
  0x68, 0xd2, 0x28, 0x44, 0x64, 0x3a, 0x3c, 0x16, 0x75, 0xbb, 0x04, 0xfc,
  0xb8, 0x18, 0xf9, 0x46, 0x2d, 0x0e, 0xfb, 0xbf, 0x70, 0xe9, 0xe0, 0x00,
  0x18, 0x05, 0xd5, 0x3a, 0x02, 0xdf, 0xf0, 0xee, 0x1c, 0x38, 0x20, 0xf1,
  0x2c, 0x27, 0x09, 0x3e, 0x31, 0x1d, 0xec, 0x23, 0x40, 0xd9, 0x0a, 0x3f,
  0xef, 0x0f, 0x47, 0xe2, 0xa3, 0x09, 0x10, 0x10, 0xba, 0x0e, 0x8d, 0xc6,
  0xab, 0x45, 0xc3, 0xaa, 0xef, 0x2a, 0xb5, 0x33, 0x38, 0xc1, 0xe5, 0xce,
  0x02, 0x00, 0xeb, 0xa6, 0x1c, 0xf6, 0x0d, 0xd4, 0x1e, 0x1d, 0xcc, 0xc3,
  0xac, 0x27, 0xc2, 0x04, 0xa9, 0xf3, 0xf7, 0xd2, 0xda, 0x18, 0x10, 0x10,
  0x17, 0x32, 0x67, 0xfc, 0xe3, 0x28, 0x1c, 0x15, 0xf7, 0x3e, 0xbb, 0x37,
  0x28, 0x03, 0x2e, 0xbd, 0x18, 0x1e, 0x1a, 0xe3, 0x00, 0x25, 0x08, 0x2e,
  0x1f, 0xd5, 0xf7, 0x33, 0x1e, 0xb7, 0x27, 0xe5, 0x25, 0x15, 0x04, 0x33,
  0x1a, 0xfc, 0xd7, 0xe6, 0x11, 0xc7, 0xec, 0x22, 0xf3, 0xc2, 0xad, 0xbd,
  0xd3, 0x15, 0x0d, 0xff, 0xf7, 0x2b, 0xdb, 0x2e, 0xbd, 0xdd, 0xf1, 0xf1,
  0xe5, 0xfd, 0x16, 0x85, 0x25, 0x23, 0x3d, 0xff, 0x02, 0xe4, 0xf8, 0xc5,
  0x64, 0x17, 0x0c, 0xc4, 0xe4, 0x06, 0xff, 0xf7, 0xe6, 0x01, 0x91, 0xa9,
  0xe4, 0x02, 0xee, 0x3c, 0xd2, 0xdd, 0xfe, 0x09, 0xb8, 0xe9, 0xc6, 0x10,
  0xae, 0xd5, 0x01, 0x3b, 0xcb, 0xec, 0x10, 0xe6, 0x02, 0xd4, 0x1d, 0xf5,
  0x17, 0x14, 0x25, 0x05, 0xfa, 0xfa, 0xea, 0xd0, 0xeb, 0xf1, 0xe0, 0xee,
  0xa8, 0x1d, 0xaa, 0xd7, 0x05, 0x38, 0x13, 0xcd, 0xf6, 0x01, 0xc4, 0xe7,
  0x2f, 0x34, 0x36, 0x20, 0x10, 0x01, 0xe5, 0x3a, 0x35, 0xfc, 0xc6, 0x21,
  0xe6, 0x32, 0x02, 0x2a, 0xdb, 0xd1, 0x1f, 0x36, 0x05, 0x22, 0xbe, 0x00,
  0x2b, 0xfc, 0x32, 0xab, 0x0f, 0xe3, 0xf0, 0xdc, 0x2e, 0x35, 0xbf, 0x3b,
  0xee, 0xae, 0x1b, 0xc4, 0xdb, 0x17, 0x0f, 0x19, 0xb5, 0x1c, 0xb8, 0xac,
  0xf1, 0xe6, 0xa5, 0x36, 0x14, 0x34, 0x35, 0xde, 0x43, 0x10, 0x10, 0xe2,
  0x05, 0x32, 0xfe, 0xd3, 0xd0, 0xeb, 0x0c, 0xfd, 0xd2, 0x0a, 0x09, 0x0d,
  0x3a, 0x11, 0x13, 0xaa, 0xfa, 0xe1, 0x20, 0xb1, 0x0f, 0x1a, 0xf8, 0x18,
  0x11, 0xc2, 0xc8, 0x2f, 0x00, 0x51, 0x02, 0xc1, 0x01, 0x3f, 0x4d, 0x1e,
  0x16, 0xfb, 0x19, 0x11, 0x72, 0xbf, 0x1b, 0x02, 0x52, 0x61, 0xfb, 0x0f,
  0xf3, 0xfb, 0xf5, 0x01, 0xe5, 0xf5, 0xd9, 0x1d, 0xe2, 0xf0, 0xf7, 0x11,
  0xd4, 0xbd, 0x44, 0x3d, 0x19, 0xf5, 0x52, 0xc7, 0x26, 0xf9, 0x3d, 0x71,
  0x27, 0x4b, 0xf6, 0xe3, 0x4b, 0xec, 0x46, 0xf0, 0x08, 0x26, 0x54, 0xdc,
  0xf2, 0x2f, 0xa9, 0x32, 0xb4, 0xdb, 0x1f, 0xfc, 0x12, 0xd4, 0x2c, 0x14,
  0x38, 0xf4, 0x20, 0x30, 0x52, 0xc4, 0x26, 0x32, 0xf0, 0x1c, 0xc4, 0x12,
  0x0e, 0xde, 0xef, 0xc6, 0xf7, 0xf7, 0x42, 0x03, 0x35, 0xcd, 0x1a, 0x0b,
  0xea, 0x9d, 0x03, 0xe5, 0x31, 0xb9, 0xcc, 0xc1, 0xcc, 0x77, 0xf5, 0x19,
  0x82, 0x5c, 0xe7, 0xc6, 0xb2, 0x21, 0xba, 0xfe, 0x2e, 0xd7, 0x31, 0xbf,
  0x2f, 0xca, 0x07, 0xb7, 0xa4, 0x0b, 0x00, 0xd8, 0x17, 0x0c, 0x00, 0x3b,
  0xf7, 0x16, 0x18, 0xb3, 0x94, 0xdd, 0x92, 0x06, 0xe9, 0xc5, 0xfa, 0x24,
  0x22, 0x07, 0x20, 0x24, 0x0a, 0xcb, 0x4a, 0xb3, 0xb5, 0x24, 0x09, 0xa4,
  0x09, 0xcf, 0xee, 0xf0, 0xdb, 0xc8, 0x1e, 0xc5, 0xfa, 0x04, 0xd1, 0xe4,
  0x34, 0x0a, 0xd9, 0x04, 0xec, 0xa9, 0xd1, 0x2a, 0xea, 0xe6, 0xe0, 0x09,
  0x3f, 0x26, 0x3a, 0xa6, 0xe9, 0xe7, 0x2e, 0x38, 0xc9, 0xed, 0xc7, 0x30,
  0xb0, 0x16, 0x1a, 0xcf, 0xcd, 0xac, 0x26, 0xdd, 0xda, 0xc5, 0xeb, 0xbd,
  0xd4, 0x29, 0x27, 0x25, 0x44, 0xd6, 0x13, 0xed, 0xe4, 0xc8, 0x3d, 0x09,
  0x22, 0xed, 0x26, 0x19, 0xe8, 0x20, 0xf8, 0x41, 0x12, 0x25, 0x33, 0xed,
  0xea, 0xc7, 0xc6, 0xad, 0xef, 0x4a, 0xb4, 0xec, 0xde, 0x1f, 0x01, 0xbf,
  0x30, 0xf3, 0xc1, 0xc8, 0x2b, 0x2f, 0xce, 0xe4, 0xfd, 0x1e, 0xb6, 0x27,
  0x35, 0x0d, 0xe1, 0x26, 0xa8, 0x0d, 0xd8, 0xe6, 0x20, 0xf4, 0x22, 0xbd,
  0xc6, 0x0b, 0x34, 0xf3, 0xd5, 0xc9, 0x3e, 0x06, 0xd6, 0xac, 0xbd, 0x23,
  0xbc, 0x25, 0xe6, 0x0e, 0x16, 0xf3, 0xe2, 0xd5, 0x10, 0x13, 0xc5, 0x2c,
  0x40, 0xe2, 0xef, 0xd5, 0xff, 0x2f, 0x57, 0xec, 0xac, 0x00, 0xdc, 0x31,
  0x0d, 0x3b, 0xd2, 0xa9, 0x14, 0xad, 0x0f, 0x4d, 0x5a, 0xdd, 0x35, 0xe0,
  0x0f, 0x29, 0x4f, 0xf9, 0xa8, 0x12, 0x04, 0xcf, 0xe9, 0x39, 0x1f, 0x3e,
  0xe1, 0xf7, 0x12, 0x06, 0x38, 0x15, 0x05, 0xdb, 0xe5, 0xe6, 0x06, 0xe3,
  0xc2, 0x25, 0xb8, 0x53, 0xd8, 0xfb, 0xe8, 0x4b, 0x2f, 0x07, 0x05, 0xbe,
  0xf4, 0x29, 0xf5, 0x10, 0x00, 0xe1, 0x0a, 0x28, 0xb8, 0xed, 0xa9, 0xbf,
  0x1d, 0xfc, 0xbf, 0xcb, 0xa9, 0xca, 0x0a, 0x39, 0x1f, 0xf2, 0x1e, 0x47,
  0x0d, 0xf9, 0x40, 0xe3, 0x5d, 0x1b, 0xe9, 0xd6, 0xfa, 0xf7, 0xd2, 0xd8,
  0x5c, 0xf7, 0x0e, 0xe3, 0xa8, 0xd9, 0xef, 0x15, 0xf5, 0x1a, 0x48, 0x06,
  0x08, 0x2e, 0xe3, 0x4c, 0x47, 0x39, 0xd5, 0x27, 0xfe, 0x46, 0x27, 0x6d,
  0xfa, 0x5c, 0xf0, 0xfc, 0x23, 0xc6, 0xc2, 0x12, 0xed, 0xee, 0xf7, 0x40,
  0xeb, 0xf1, 0x39, 0x13, 0xff, 0x3c, 0xec, 0x26, 0xbe, 0xb3, 0xd4, 0xe7,
  0xd0, 0xfe, 0xdc, 0xcf, 0xc5, 0x32, 0xf2, 0xeb, 0xfb, 0xc5, 0xfd, 0xbe,
  0xc6, 0x07, 0xab, 0x0d, 0xc4, 0xd2, 0x0b, 0xaf, 0xe7, 0x23, 0xf3, 0xee,
  0x17, 0xcb, 0xca, 0xdc, 0xd7, 0x03, 0x40, 0x08, 0xaf, 0xb3, 0x2b, 0x11,
  0x37, 0x37, 0xc8, 0x3d, 0x11, 0x0a, 0x06, 0xe2, 0x4b, 0xee, 0x33, 0xe8,
  0xb9, 0x41, 0x12, 0xac, 0xd4, 0xc1, 0x3f, 0x28, 0xdc, 0xd3, 0x32, 0xbd,
  0x2d, 0x1b, 0x30, 0x34, 0x30, 0x34, 0xd2, 0xe1, 0xc3, 0x31, 0xcd, 0x19,
  0x0f, 0xe7, 0x08, 0x07, 0x0e, 0x2c, 0x3a, 0x0b, 0x29, 0x1f, 0x19, 0xd7,
  0x46, 0xc3, 0xd9, 0xeb, 0xcb, 0xf6, 0x25, 0xd8, 0x34, 0xcb, 0xb4, 0xd0,
  0x26, 0x43, 0xfc, 0xae, 0x23, 0xcb, 0xe0, 0xaa, 0x1f, 0xdb, 0xd0, 0x50,
  0xe9, 0x24, 0x2f, 0xd5, 0x0a, 0xe2, 0x32, 0x21, 0x2b, 0xd3, 0xcf, 0x38,
  0x3e, 0xcc, 0xd6, 0x32, 0xc1, 0xd2, 0xfa, 0x1d, 0x10, 0x02, 0xfa, 0xbe,
  0xdc, 0x3a, 0x0a, 0xed, 0x3b, 0xf0, 0x1d, 0x4f, 0xfe, 0xcb, 0x2d, 0x16,
  0xdc, 0x0a, 0x1e, 0xc5, 0x34, 0xd2, 0xd5, 0x2e, 0x10, 0x3a, 0x19, 0x13,
  0xba, 0xfd, 0xce, 0xf1, 0xd0, 0x30, 0x20, 0xbe, 0x1a, 0xe9, 0xe3, 0xb1,
  0xeb, 0xc0, 0xbf, 0xb1, 0xd3, 0xca, 0xd9, 0xdd, 0xc9, 0xc9, 0xab, 0xc7,
  0x25, 0x0e, 0xcc, 0x2d, 0x06, 0x24, 0x43, 0xf9, 0x44, 0x37, 0x05, 0xf5,
  0x48, 0x26, 0xfc, 0x25, 0x3c, 0xdf, 0x0b, 0xca, 0x16, 0xc7, 0x1b, 0xd2,
  0x3a, 0xfa, 0xfa, 0xe2, 0x2f, 0x35, 0xcc, 0x48, 0x39, 0xee, 0x1e, 0x0b,
  0xf1, 0xd4, 0x39, 0xc3, 0x2b, 0x2d, 0xc8, 0x44, 0x48, 0xcf, 0xeb, 0xce,
  0x1d, 0xee, 0xf4, 0x13, 0x0e, 0xd2, 0x0b, 0x2a, 0x44, 0xb9, 0x3a, 0xd1,
  0x28, 0xcf, 0xc6, 0xed, 0x2b, 0xc1, 0x3c, 0xf7, 0x29, 0xcb, 0xce, 0xdf,
  0xec, 0x0d, 0xd0, 0xd2, 0x14, 0xfd, 0xd0, 0x15, 0xf6, 0x04, 0xf7, 0xdd,
  0x48, 0xdb, 0x01, 0x22, 0xf5, 0xde, 0xec, 0xe8, 0x29, 0xf9, 0xe5, 0x03,
  0xff, 0x04, 0xe9, 0xd6, 0x13, 0x18, 0xc6, 0x2e, 0x2e, 0x36, 0xe8, 0x23,
  0x02, 0x22, 0x16, 0x0f, 0x04, 0x26, 0x3b, 0x27, 0x54, 0xa7, 0xca, 0xd8,
  0x47, 0xee, 0xcd, 0x17, 0xe5, 0xe3, 0xdb, 0x0b, 0xd1, 0x22, 0x0f, 0xc8,
  0xc2, 0xf0, 0x47, 0x2e, 0xf8, 0x4d, 0x27, 0xaf, 0xa8, 0xa8, 0x22, 0xc7,
  0xa2, 0xf3, 0xfd, 0xfd, 0x13, 0xf0, 0xc7, 0xd8, 0xe1, 0x2e, 0xbc, 0x16,
  0x49, 0x22, 0x23, 0xf4, 0x23, 0xe0, 0x24, 0x4b, 0x57, 0xe7, 0x34, 0x46,
  0x2f, 0x57, 0x33, 0x2e, 0x40, 0x05, 0x40, 0xc2, 0xe9, 0x24, 0xe7, 0x14,
  0xd8, 0xbf, 0x40, 0xe9, 0x56, 0xfe, 0x47, 0xae, 0xe5, 0xcd, 0xba, 0x3d,
  0x1a, 0x18, 0x20, 0xa7, 0x1e, 0x0e, 0xd5, 0x0f, 0x4c, 0xd2, 0x24, 0xd1,
  0x36, 0x27, 0xc7, 0xff, 0xff, 0xe6, 0xf1, 0xaa, 0xe9, 0x33, 0xde, 0x4d,
  0x05, 0xf4, 0x81, 0xbf, 0xcc, 0xdb, 0xe6, 0x2b, 0xc7, 0xbd, 0xea, 0x2d,
  0x15, 0xb2, 0xd2, 0xe2, 0xc8, 0x0b, 0xa9, 0xc2, 0xfb, 0x83, 0x14, 0xe1,
  0xe0, 0x51, 0xdb, 0x98, 0xe8, 0xe8, 0xed, 0xfc, 0xb4, 0xe1, 0xe0, 0xeb,
  0x2e, 0xc4, 0xcf, 0xfb, 0x30, 0x10, 0xf6, 0x0a, 0x40, 0xe3, 0xe4, 0xc3,
  0xd7, 0x3a, 0x35, 0xcc, 0xf0, 0xf7, 0x18, 0x0b, 0xff, 0x1b, 0x08, 0x26,
  0xca, 0x32, 0xbb, 0xfc, 0x18, 0x1a, 0x29, 0xd4, 0x17, 0x3f, 0xd4, 0x26,
  0xfc, 0x27, 0x0e, 0xe4, 0xee, 0x0a, 0x29, 0x19, 0xf0, 0xfd, 0xd9, 0xc4,
  0xc6, 0x19, 0xf1, 0xda, 0xf2, 0xc1, 0x20, 0x4f, 0xb1, 0xd2, 0xf3, 0x07,
  0x37, 0x11, 0xd2, 0xf5, 0x21, 0xbc, 0x42, 0xed, 0xac, 0xea, 0xed, 0x2d,
  0xe9, 0xe5, 0xcf, 0xf1, 0xb7, 0x0b, 0xf1, 0x36, 0xd0, 0xd7, 0x26, 0x32,
  0xdc, 0x33, 0xb8, 0xda, 0x0f, 0xfc, 0x2a, 0x51, 0xfc, 0x20, 0x13, 0xdd,
  0x43, 0x37, 0x15, 0x40, 0xef, 0x66, 0xc4, 0xa3, 0x16, 0x1c, 0xe6, 0xdb,
  0x0e, 0x2f, 0xe0, 0x03, 0x0a, 0x3c, 0x14, 0xd0, 0x42, 0xfa, 0xf0, 0xfa,
  0xec, 0x1a, 0xd9, 0xc2, 0x1c, 0x05, 0xed, 0x56, 0xf7, 0x39, 0x09, 0xfd,
  0xda, 0x9a, 0xab, 0x31, 0xa1, 0xcc, 0xf2, 0xf1, 0xfb, 0x0a, 0x0e, 0xfd,
  0xa0, 0x0f, 0x96, 0x08, 0xdb, 0x27, 0x0f, 0x0b, 0xcc, 0xa6, 0x52, 0xf5,
  0x1a, 0x06, 0xc0, 0x88, 0xe8, 0xde, 0x2b, 0x37, 0xd5, 0xfd, 0xcb, 0x64,
  0xe9, 0x01, 0x0c, 0xb7, 0xc4, 0x12, 0xc2, 0xef, 0xea, 0x02, 0xf8, 0x21,
  0xb9, 0xea, 0x15, 0xe2, 0xfa, 0xde, 0xf3, 0xd7, 0x23, 0xbd, 0x03, 0x0b,
  0xdd, 0x17, 0x18, 0xe4, 0xdb, 0x02, 0x10, 0x2b, 0xf8, 0x1c, 0x1f, 0xf7,
  0xe1, 0xe4, 0xf4, 0xc6, 0x04, 0x02, 0x20, 0xfd, 0x2c, 0xd7, 0x13, 0x10,
  0x13, 0x97, 0xfa, 0xdc, 0x08, 0x24, 0x47, 0x0e, 0x04, 0x18, 0x68, 0x35,
  0xdb, 0x38, 0x1e, 0x08, 0x38, 0xb5, 0x23, 0xba, 0x4c, 0x48, 0x3a, 0xaf,
  0xda, 0xcd, 0x06, 0x37, 0x9e, 0xe6, 0xd6, 0x41, 0xf3, 0x5f, 0x52, 0x28,
  0xde, 0x09, 0x2a, 0x0a, 0xfd, 0xeb, 0x07, 0xb5, 0x40, 0xfd, 0x4b, 0x62,
  0x66, 0x55, 0x31, 0xad, 0x24, 0x28, 0x20, 0x11, 0xca, 0x28, 0xfe, 0xd3,
  0x34, 0xa8, 0x30, 0xf0, 0x31, 0xc8, 0xc5, 0xdd, 0x32, 0xf9, 0xd3, 0x10,
  0xf8, 0x1e, 0x2e, 0x39, 0xcf, 0x02, 0xc3, 0x23, 0x20, 0xb4, 0xf7, 0x5c,
  0x13, 0x1c, 0x39, 0xcc, 0x0d, 0xcc, 0xce, 0x99, 0x3e, 0xe3, 0x24, 0xfe,
  0xe8, 0xdd, 0x42, 0xfe, 0x1e, 0x10, 0xe6, 0x41, 0x2e, 0xb6, 0x46, 0x06,
  0xf8, 0xf3, 0xf5, 0x16, 0x4b, 0xdd, 0xd2, 0x29, 0xf1, 0x08, 0xc1, 0xe9,
  0x0c, 0xe4, 0x3d, 0x1c, 0xf7, 0x4f, 0xc0, 0xf1, 0x57, 0x39, 0x06, 0xf3,
  0x5e, 0xf5, 0x2b, 0x54, 0x71, 0x0f, 0xf0, 0x17, 0x11, 0xbb, 0x39, 0x26,
  0x36, 0x1d, 0x2e, 0x43, 0xda, 0x4e, 0x25, 0x49, 0x19, 0xe6, 0xb9, 0x17,
  0xf6, 0xd5, 0x06, 0x4c, 0xd7, 0x2b, 0xf3, 0x45, 0x12, 0xda, 0x47, 0xb8,
  0xea, 0x3b, 0x1e, 0x47, 0x30, 0xbb, 0x02, 0x35, 0xda, 0x00, 0x10, 0xd7,
  0xb9, 0x05, 0xaa, 0x23, 0xf5, 0x04, 0x46, 0xf3, 0xb9, 0x19, 0xd9, 0xc4,
  0x10, 0xa7, 0x42, 0x19, 0xea, 0xf7, 0x17, 0x0f, 0x06, 0x05, 0xc6, 0x04,
  0x98, 0x03, 0x03, 0x1b, 0xba, 0xa7, 0x23, 0xd0, 0xa8, 0xda, 0xce, 0xef,
  0x10, 0x2c, 0xdb, 0xb1, 0xff, 0xf7, 0xd4, 0xb0, 0xe8, 0x0b, 0xc9, 0xef,
  0xc6, 0x35, 0x9e, 0xc6, 0xf6, 0x2f, 0xe7, 0xf2, 0xe1, 0xc7, 0xc4, 0xfd,
  0xed, 0x1b, 0xed, 0xd8, 0x09, 0xd4, 0xfc, 0xb8, 0xd9, 0xb3, 0x41, 0xef,
  0xb3, 0x34, 0x13, 0xc0, 0xfe, 0xd9, 0xf2, 0x0b, 0xb2, 0xc3, 0xf4, 0xf3,
  0xd5, 0xfe, 0xd4, 0xf3, 0x29, 0xdc, 0xb0, 0xd2, 0x20, 0x06, 0x09, 0xf8,
  0xf1, 0xbe, 0xca, 0xfe, 0x2c, 0xd7, 0xd3, 0x18, 0x16, 0x39, 0x35, 0xee,
  0xfc, 0xe2, 0xdc, 0xe7, 0x3a, 0xea, 0xe9, 0x0e, 0xf0, 0x0e, 0xc0, 0x28,
  0xdd, 0xe9, 0x32, 0xc9, 0x16, 0xdc, 0x37, 0x36, 0xde, 0xb0, 0xf9, 0x41,
  0x3e, 0xcd, 0xf4, 0xf1, 0xd0, 0x13, 0x2b, 0xb1, 0x09, 0xb9, 0xec, 0x22,
  0xf3, 0x31, 0x1e, 0xf4, 0xc0, 0xc0, 0x3a, 0xc8, 0x02, 0xfa, 0x45, 0x14,
  0x20, 0xf1, 0x4c, 0xef, 0x32, 0xe5, 0xc4, 0xba, 0x46, 0x05, 0x02, 0xd1,
  0xc9, 0xdb, 0x20, 0x05, 0x3c, 0x16, 0xf3, 0xc3, 0xc5, 0x2d, 0x17, 0xd9,
  0x2c, 0xe4, 0x1f, 0xc9, 0x28, 0xbc, 0xbd, 0xcd, 0xc1, 0xc3, 0xb6, 0xe6,
  0x41, 0x07, 0xae, 0xbe, 0x16, 0x24, 0x20, 0x2a, 0x0b, 0x0d, 0xe8, 0x1e,
  0xdf, 0xb5, 0xc3, 0x15, 0xc4, 0xdd, 0xdb, 0xeb, 0x02, 0x0b, 0x01, 0x3c,
  0xb3, 0x02, 0x29, 0xf5, 0x08, 0x3d, 0xcb, 0x1b, 0xff, 0xd8, 0x35, 0x23,
  0x20, 0xcc, 0xdc, 0xe7, 0xbf, 0x43, 0x2a, 0x44, 0x31, 0x2e, 0x37, 0x46,
  0x23, 0x2a, 0xf5, 0xf8, 0xf9, 0x18, 0xfe, 0x16, 0xe9, 0xef, 0xb1, 0xff,
  0xcf, 0xbb, 0x0e, 0xc5, 0x3e, 0x3d, 0x1a, 0x20, 0xc4, 0xed, 0xe6, 0xdb,
  0xec, 0x26, 0x29, 0x09, 0x18, 0x07, 0x53, 0xd4, 0x15, 0xbb, 0x1f, 0x4d,
  0x2d, 0xe7, 0x32, 0xee, 0xbb, 0xe5, 0xc6, 0xcf, 0xef, 0x43, 0xb4, 0xe8,
  0xdd, 0xe2, 0xbb, 0xc3, 0x10, 0xe0, 0xe3, 0xd5, 0xca, 0xa7, 0xce, 0x28,
  0x11, 0xca, 0xeb, 0x9c, 0x3a, 0x0a, 0xb4, 0xb5, 0xf7, 0x31, 0xcd, 0x19,
  0xe5, 0xcb, 0xe6, 0x3e, 0x9c, 0xfd, 0xe9, 0x38, 0xf2, 0xce, 0xc9, 0xb9,
  0xcb, 0xb6, 0xbd, 0xd7, 0x41, 0x18, 0xce, 0xc3, 0xd9, 0x1d, 0x09, 0x2a,
  0xc1, 0xd3, 0x36, 0x08, 0x00, 0xcc, 0x03, 0x07, 0xeb, 0xed, 0x1c, 0xe8,
  0xed, 0xd4, 0xb8, 0x3e, 0x1b, 0x10, 0x14, 0x40, 0x38, 0xd4, 0xc9, 0xc9,
  0xfa, 0xc8, 0xd0, 0xba, 0xcd, 0xd5, 0x28, 0xf7, 0x13, 0xbd, 0x04, 0x3c,
  0x2e, 0x12, 0xe0, 0xdc, 0xfc, 0x42, 0x3c, 0xf2, 0x2f, 0x41, 0x0c, 0xb4,
  0x2e, 0xda, 0xb7, 0x21, 0x21, 0xfb, 0xbd, 0xcb, 0x2a, 0xc7, 0x38, 0xca,
  0x0a, 0xe9, 0x0d, 0xb4, 0x36, 0xbf, 0xe9, 0xcd, 0x2e, 0x25, 0xcf, 0x11,
  0xcb, 0xf0, 0xd1, 0x25, 0xbe, 0x04, 0x51, 0x23, 0x45, 0xca, 0xd8, 0xfc,
  0x12, 0x59, 0x36, 0xf0, 0xeb, 0x4d, 0xc7, 0x0e, 0x0d, 0x05, 0xca, 0x44,
  0xd1, 0xff, 0xca, 0x4a, 0xd4, 0x04, 0xe8, 0xed, 0x2a, 0x11, 0xdb, 0x26,
  0xb1, 0x55, 0xba, 0x27, 0x28, 0x0f, 0xe2, 0xe2, 0x3a, 0xf7, 0xe2, 0x1f,
  0xf7, 0x27, 0xd7, 0x10, 0xed, 0xfe, 0x08, 0x25, 0xb9, 0x4e, 0xde, 0x06,
  0xe6, 0x56, 0xba, 0xe5, 0xbd, 0xe4, 0xf6, 0x1f, 0x0f, 0x88, 0x1a, 0xc3,
  0x08, 0x20, 0xf9, 0xf2, 0x15, 0xbb, 0x27, 0xe0, 0x03, 0x06, 0xd7, 0xda,
  0xca, 0x13, 0x0b, 0x16, 0x89, 0xe5, 0xf8, 0xf4, 0x2e, 0xe2, 0xa8, 0xe7,
  0xb7, 0xba, 0xfa, 0xda, 0xf4, 0xc1, 0x1d, 0xf0, 0x51, 0x1c, 0xef, 0x3a,
  0x00, 0x22, 0xeb, 0xd4, 0xaf, 0x32, 0x1f, 0xee, 0x06, 0x3b, 0xf7, 0x31,
  0xb5, 0xf3, 0xc2, 0xf7, 0x28, 0x0f, 0x38, 0x2a, 0x2b, 0xf6, 0x0d, 0x25,
  0xf9, 0x97, 0xcb, 0x12, 0xe5, 0xe3, 0x07, 0x18, 0x50, 0xd2, 0x09, 0xea,
  0xd6, 0x1e, 0x26, 0x07, 0x0d, 0xad, 0xda, 0x01, 0xff, 0x5f, 0x37, 0xbe,
  0x21, 0x01, 0x00, 0x52, 0x99, 0xfc, 0x22, 0x40, 0x34, 0x0d, 0x1d, 0xf5,
  0xf6, 0xd5, 0x22, 0x12, 0xd1, 0xf2, 0x0e, 0x2e, 0xf9, 0xd5, 0x0f, 0x79,
  0x07, 0x62, 0x3e, 0x19, 0x52, 0x00, 0xe1, 0x0d, 0x08, 0x17, 0xf3, 0xcc,
  0xd7, 0x0e, 0x2c, 0x2e, 0x08, 0x1e, 0x33, 0x20, 0xd4, 0xb6, 0x19, 0xea,
  0x1d, 0xf6, 0xbc, 0xc7, 0xd0, 0x04, 0x3e, 0x0f, 0x3f, 0x00, 0xd7, 0xf7,
  0x1e, 0xcd, 0x45, 0x31, 0xce, 0xd0, 0xb2, 0xb7, 0xe9, 0xff, 0x04, 0xe5,
  0x44, 0x2c, 0x40, 0x25, 0xfb, 0xd7, 0xfe, 0x27, 0xfd, 0xd2, 0x56, 0x0f,
  0x28, 0x00, 0x29, 0x13, 0x0b, 0xd5, 0x4d, 0xf7, 0x1c, 0x53, 0x24, 0xdd,
  0xdc, 0x47, 0x1b, 0xf7, 0x50, 0xf5, 0x19, 0x1f, 0xd8, 0xde, 0x07, 0x28,
  0x3d, 0xc7, 0x10, 0x53, 0xe7, 0x0d, 0x09, 0x40, 0x3a, 0x21, 0x31, 0x31,
  0x00, 0x00, 0x00, 0x00, 0x00, 0x00, 0x00, 0x00, 0xa6, 0xff, 0xff, 0xff,
  0x04, 0x00, 0x00, 0x00, 0x04, 0x00, 0x00, 0x00, 0xb2, 0x05, 0x00, 0x00,
  0xb6, 0xff, 0xff, 0xff, 0x04, 0x00, 0x00, 0x00, 0x3c, 0x00, 0x00, 0x00,
  0x25, 0x08, 0x00, 0x00, 0xae, 0x0c, 0x00, 0x00, 0xcc, 0x02, 0x00, 0x00,
  0xb3, 0x06, 0x00, 0x00, 0x7d, 0x0c, 0x00, 0x00, 0x0e, 0x04, 0x00, 0x00,
  0xe2, 0x13, 0x00, 0x00, 0xcb, 0x0f, 0x00, 0x00, 0x80, 0x11, 0x00, 0x00,
  0x2f, 0x06, 0x00, 0x00, 0x46, 0x0e, 0x00, 0x00, 0x47, 0x0b, 0x00, 0x00,
  0xd2, 0x07, 0x00, 0x00, 0xaf, 0x0d, 0x00, 0x00, 0xda, 0x09, 0x00, 0x00,
  0x00, 0x00, 0x06, 0x00, 0x08, 0x00, 0x04, 0x00, 0x06, 0x00, 0x00, 0x00,
  0x04, 0x00, 0x00, 0x00, 0x78, 0x00, 0x00, 0x00, 0x79, 0xfe, 0xff, 0xff,
  0x3c, 0x38, 0x00, 0x00, 0x0c, 0xe0, 0xff, 0xff, 0xf8, 0x3f, 0x00, 0x00,
  0xa1, 0xec, 0xff, 0xff, 0xa4, 0x30, 0x00, 0x00, 0xd9, 0x24, 0x00, 0x00,
  0xc0, 0xf6, 0xff, 0xff, 0x2b, 0xe2, 0xff, 0xff, 0x35, 0x2b, 0x00, 0x00,
  0x76, 0xf5, 0xff, 0xff, 0x9a, 0x0a, 0x00, 0x00, 0x19, 0xf6, 0xff, 0xff,
  0x6c, 0x02, 0x00, 0x00, 0x80, 0xe9, 0xff, 0xff, 0xff, 0xff, 0xff, 0xff,
  0x56, 0x0d, 0x00, 0x00, 0x3f, 0x2b, 0x00, 0x00, 0x3c, 0x07, 0x00, 0x00,
  0x8a, 0x38, 0x00, 0x00, 0xbc, 0xe1, 0xff, 0xff, 0xde, 0xea, 0xff, 0xff,
  0x6c, 0x24, 0x00, 0x00, 0xcf, 0xfb, 0xff, 0xff, 0x10, 0x02, 0x00, 0x00,
  0x22, 0x27, 0x00, 0x00, 0x43, 0xfc, 0xff, 0xff, 0x40, 0x2d, 0x00, 0x00,
  0xb1, 0xe6, 0xff, 0xff, 0xfd, 0xea, 0xff, 0xff, 0x00, 0x00, 0x00, 0x00,
  0x1c, 0xff, 0xff, 0xff, 0x00, 0x00, 0x00, 0x00, 0x00, 0x00, 0x00, 0x00,
  0x00, 0x00, 0x00, 0x00, 0x2c, 0xff, 0xff, 0xff, 0x00, 0x00, 0x00, 0x00,
  0x00, 0x00, 0x00, 0x00, 0x0f, 0x00, 0x00, 0x00, 0x4d, 0x4c, 0x49, 0x52,
  0x20, 0x43, 0x6f, 0x6e, 0x76, 0x65, 0x72, 0x74, 0x65, 0x64, 0x2e, 0x00,
  0x01, 0x00, 0x00, 0x00, 0x14, 0x00, 0x00, 0x00, 0x00, 0x00, 0x0e, 0x00,
  0x18, 0x00, 0x04, 0x00, 0x08, 0x00, 0x0c, 0x00, 0x10, 0x00, 0x14, 0x00,
  0x0e, 0x00, 0x00, 0x00, 0x58, 0x01, 0x00, 0x00, 0x4c, 0x01, 0x00, 0x00,
  0x40, 0x01, 0x00, 0x00, 0x14, 0x00, 0x00, 0x00, 0x04, 0x00, 0x00, 0x00,
  0x04, 0x00, 0x00, 0x00, 0x6d, 0x61, 0x69, 0x6e, 0x00, 0x00, 0x00, 0x00,
  0x05, 0x00, 0x00, 0x00, 0xe8, 0x00, 0x00, 0x00, 0xa0, 0x00, 0x00, 0x00,
  0x58, 0x00, 0x00, 0x00, 0x34, 0x00, 0x00, 0x00, 0x04, 0x00, 0x00, 0x00,
  0xde, 0xff, 0xff, 0xff, 0x02, 0x00, 0x00, 0x00, 0x10, 0x00, 0x00, 0x00,
  0x04, 0x00, 0x00, 0x00, 0x01, 0x00, 0x00, 0x00, 0x0b, 0x00, 0x00, 0x00,
  0x01, 0x00, 0x00, 0x00, 0x0a, 0x00, 0x00, 0x00, 0x00, 0x00, 0x0a, 0x00,
  0x10, 0x00, 0x04, 0x00, 0x08, 0x00, 0x0c, 0x00, 0x0a, 0x00, 0x00, 0x00,
  0x01, 0x00, 0x00, 0x00, 0x10, 0x00, 0x00, 0x00, 0x04, 0x00, 0x00, 0x00,
  0x01, 0x00, 0x00, 0x00, 0x0a, 0x00, 0x00, 0x00, 0x01, 0x00, 0x00, 0x00,
  0x09, 0x00, 0x00, 0x00, 0xca, 0xff, 0xff, 0xff, 0x00, 0x00, 0x00, 0x08,
  0x1c, 0x00, 0x00, 0x00, 0x10, 0x00, 0x00, 0x00, 0x08, 0x00, 0x00, 0x00,
  0x04, 0x00, 0x04, 0x00, 0x04, 0x00, 0x00, 0x00, 0x01, 0x00, 0x00, 0x00,
  0x09, 0x00, 0x00, 0x00, 0x03, 0x00, 0x00, 0x00, 0x08, 0x00, 0x00, 0x00,
  0x06, 0x00, 0x00, 0x00, 0x03, 0x00, 0x00, 0x00, 0x00, 0x00, 0x0e, 0x00,
  0x14, 0x00, 0x00, 0x00, 0x08, 0x00, 0x0c, 0x00, 0x07, 0x00, 0x10, 0x00,
  0x0e, 0x00, 0x00, 0x00, 0x00, 0x00, 0x00, 0x08, 0x1c, 0x00, 0x00, 0x00,
  0x10, 0x00, 0x00, 0x00, 0x04, 0x00, 0x00, 0x00, 0xba, 0xff, 0xff, 0xff,
  0x00, 0x00, 0x00, 0x01, 0x01, 0x00, 0x00, 0x00, 0x08, 0x00, 0x00, 0x00,
  0x03, 0x00, 0x00, 0x00, 0x07, 0x00, 0x00, 0x00, 0x05, 0x00, 0x00, 0x00,
  0x02, 0x00, 0x00, 0x00, 0x00, 0x00, 0x0e, 0x00, 0x16, 0x00, 0x00, 0x00,
  0x08, 0x00, 0x0c, 0x00, 0x07, 0x00, 0x10, 0x00, 0x0e, 0x00, 0x00, 0x00,
  0x00, 0x00, 0x00, 0x08, 0x24, 0x00, 0x00, 0x00, 0x18, 0x00, 0x00, 0x00,
  0x0c, 0x00, 0x00, 0x00, 0x00, 0x00, 0x06, 0x00, 0x08, 0x00, 0x07, 0x00,
  0x06, 0x00, 0x00, 0x00, 0x00, 0x00, 0x00, 0x01, 0x01, 0x00, 0x00, 0x00,
  0x07, 0x00, 0x00, 0x00, 0x03, 0x00, 0x00, 0x00, 0x00, 0x00, 0x00, 0x00,
  0x04, 0x00, 0x00, 0x00, 0x01, 0x00, 0x00, 0x00, 0x01, 0x00, 0x00, 0x00,
  0x0b, 0x00, 0x00, 0x00, 0x01, 0x00, 0x00, 0x00, 0x00, 0x00, 0x00, 0x00,
  0x0c, 0x00, 0x00, 0x00, 0xf0, 0x05, 0x00, 0x00, 0x4c, 0x05, 0x00, 0x00,
  0xbc, 0x04, 0x00, 0x00, 0x38, 0x04, 0x00, 0x00, 0xb4, 0x03, 0x00, 0x00,
  0x30, 0x03, 0x00, 0x00, 0xac, 0x02, 0x00, 0x00, 0x00, 0x02, 0x00, 0x00,
  0x54, 0x01, 0x00, 0x00, 0xc0, 0x00, 0x00, 0x00, 0x54, 0x00, 0x00, 0x00,
  0x18, 0x00, 0x00, 0x00, 0x14, 0x00, 0x10, 0x00, 0x04, 0x00, 0x00, 0x00,
  0x00, 0x00, 0x08, 0x00, 0x00, 0x00, 0x00, 0x00, 0x00, 0x00, 0x0c, 0x00,
  0x14, 0x00, 0x00, 0x00, 0x28, 0x00, 0x00, 0x00, 0x14, 0x00, 0x00, 0x00,
  0x04, 0x00, 0x00, 0x00, 0x02, 0x00, 0x00, 0x00, 0xff, 0xff, 0xff, 0xff,
  0x01, 0x00, 0x00, 0x00, 0x08, 0x00, 0x00, 0x00, 0x49, 0x64, 0x65, 0x6e,
  0x74, 0x69, 0x74, 0x79, 0x00, 0x00, 0x00, 0x00, 0x02, 0x00, 0x00, 0x00,
  0x01, 0x00, 0x00, 0x00, 0x01, 0x00, 0x00, 0x00, 0xa0, 0xfa, 0xff, 0xff,
  0x00, 0x00, 0x00, 0x09, 0x54, 0x00, 0x00, 0x00, 0x0b, 0x00, 0x00, 0x00,
  0x38, 0x00, 0x00, 0x00, 0x14, 0x00, 0x00, 0x00, 0x04, 0x00, 0x00, 0x00,
  0x02, 0x00, 0x00, 0x00, 0xff, 0xff, 0xff, 0xff, 0x01, 0x00, 0x00, 0x00,
  0x3c, 0xfb, 0xff, 0xff, 0x14, 0x00, 0x00, 0x00, 0x04, 0x00, 0x00, 0x00,
  0x01, 0x00, 0x00, 0x00, 0x80, 0xff, 0xff, 0xff, 0xff, 0xff, 0xff, 0xff,
  0x01, 0x00, 0x00, 0x00, 0x00, 0x00, 0x80, 0x3b, 0x0d, 0x00, 0x00, 0x00,
  0x49, 0x64, 0x65, 0x6e, 0x74, 0x69, 0x74, 0x79, 0x5f, 0x69, 0x6e, 0x74,
  0x38, 0x00, 0x00, 0x00, 0x02, 0x00, 0x00, 0x00, 0x01, 0x00, 0x00, 0x00,
  0x01, 0x00, 0x00, 0x00, 0x08, 0xfb, 0xff, 0xff, 0x00, 0x00, 0x00, 0x09,
  0x7c, 0x00, 0x00, 0x00, 0x0a, 0x00, 0x00, 0x00, 0x50, 0x00, 0x00, 0x00,
  0x14, 0x00, 0x00, 0x00, 0x04, 0x00, 0x00, 0x00, 0x02, 0x00, 0x00, 0x00,
  0xff, 0xff, 0xff, 0xff, 0x01, 0x00, 0x00, 0x00, 0xf4, 0xfa, 0xff, 0xff,
  0x2c, 0x00, 0x00, 0x00, 0x20, 0x00, 0x00, 0x00, 0x14, 0x00, 0x00, 0x00,
  0x04, 0x00, 0x00, 0x00, 0x01, 0x00, 0x00, 0x00, 0x0b, 0x00, 0x00, 0x00,
  0x00, 0x00, 0x00, 0x00, 0x01, 0x00, 0x00, 0x00, 0x4d, 0x35, 0xb0, 0x3d,
  0x01, 0x00, 0x00, 0x00, 0x2b, 0xba, 0x1f, 0x41, 0x01, 0x00, 0x00, 0x00,
  0x04, 0x50, 0x3f, 0xc1, 0x1c, 0x00, 0x00, 0x00, 0x73, 0x65, 0x71, 0x75,
  0x65, 0x6e, 0x74, 0x69, 0x61, 0x6c, 0x5f, 0x32, 0x2f, 0x64, 0x65, 0x6e,
  0x73, 0x65, 0x5f, 0x38, 0x2f, 0x42, 0x69, 0x61, 0x73, 0x41, 0x64, 0x64,
  0x00, 0x00, 0x00, 0x00, 0x02, 0x00, 0x00, 0x00, 0x01, 0x00, 0x00, 0x00,
  0x01, 0x00, 0x00, 0x00, 0x98, 0xfb, 0xff, 0xff, 0x00, 0x00, 0x00, 0x09,
  0x94, 0x00, 0x00, 0x00, 0x09, 0x00, 0x00, 0x00, 0x50, 0x00, 0x00, 0x00,
  0x14, 0x00, 0x00, 0x00, 0x04, 0x00, 0x00, 0x00, 0x02, 0x00, 0x00, 0x00,
  0xff, 0xff, 0xff, 0xff, 0x0f, 0x00, 0x00, 0x00, 0x84, 0xfb, 0xff, 0xff,
  0x2c, 0x00, 0x00, 0x00, 0x20, 0x00, 0x00, 0x00, 0x14, 0x00, 0x00, 0x00,
  0x04, 0x00, 0x00, 0x00, 0x01, 0x00, 0x00, 0x00, 0x80, 0xff, 0xff, 0xff,
  0xff, 0xff, 0xff, 0xff, 0x01, 0x00, 0x00, 0x00, 0x23, 0xae, 0x4b, 0x3c,
  0x01, 0x00, 0x00, 0x00, 0x75, 0xe2, 0x4a, 0x40, 0x01, 0x00, 0x00, 0x00,
  0x00, 0x00, 0x00, 0x00, 0x36, 0x00, 0x00, 0x00, 0x73, 0x65, 0x71, 0x75,
  0x65, 0x6e, 0x74, 0x69, 0x61, 0x6c, 0x5f, 0x32, 0x2f, 0x64, 0x65, 0x6e,
  0x73, 0x65, 0x5f, 0x37, 0x2f, 0x52, 0x65, 0x6c, 0x75, 0x3b, 0x73, 0x65,
  0x71, 0x75, 0x65, 0x6e, 0x74, 0x69, 0x61, 0x6c, 0x5f, 0x32, 0x2f, 0x64,
  0x65, 0x6e, 0x73, 0x65, 0x5f, 0x37, 0x2f, 0x42, 0x69, 0x61, 0x73, 0x41,
  0x64, 0x64, 0x00, 0x00, 0x02, 0x00, 0x00, 0x00, 0x01, 0x00, 0x00, 0x00,
  0x0f, 0x00, 0x00, 0x00, 0x40, 0xfc, 0xff, 0xff, 0x00, 0x00, 0x00, 0x09,
  0x94, 0x00, 0x00, 0x00, 0x08, 0x00, 0x00, 0x00, 0x50, 0x00, 0x00, 0x00,
  0x14, 0x00, 0x00, 0x00, 0x04, 0x00, 0x00, 0x00, 0x02, 0x00, 0x00, 0x00,
  0xff, 0xff, 0xff, 0xff, 0x1e, 0x00, 0x00, 0x00, 0x2c, 0xfc, 0xff, 0xff,
  0x2c, 0x00, 0x00, 0x00, 0x20, 0x00, 0x00, 0x00, 0x14, 0x00, 0x00, 0x00,
  0x04, 0x00, 0x00, 0x00, 0x01, 0x00, 0x00, 0x00, 0x80, 0xff, 0xff, 0xff,
  0xff, 0xff, 0xff, 0xff, 0x01, 0x00, 0x00, 0x00, 0x82, 0x94, 0xe5, 0x3b,
  0x01, 0x00, 0x00, 0x00, 0xed, 0xae, 0xe4, 0x3f, 0x01, 0x00, 0x00, 0x00,
  0x00, 0x00, 0x00, 0x00, 0x36, 0x00, 0x00, 0x00, 0x73, 0x65, 0x71, 0x75,
  0x65, 0x6e, 0x74, 0x69, 0x61, 0x6c, 0x5f, 0x32, 0x2f, 0x64, 0x65, 0x6e,
  0x73, 0x65, 0x5f, 0x36, 0x2f, 0x52, 0x65, 0x6c, 0x75, 0x3b, 0x73, 0x65,
  0x71, 0x75, 0x65, 0x6e, 0x74, 0x69, 0x61, 0x6c, 0x5f, 0x32, 0x2f, 0x64,
  0x65, 0x6e, 0x73, 0x65, 0x5f, 0x36, 0x2f, 0x42, 0x69, 0x61, 0x73, 0x41,
  0x64, 0x64, 0x00, 0x00, 0x02, 0x00, 0x00, 0x00, 0x01, 0x00, 0x00, 0x00,
  0x1e, 0x00, 0x00, 0x00, 0x82, 0xfd, 0xff, 0xff, 0x00, 0x00, 0x00, 0x09,
  0x6c, 0x00, 0x00, 0x00, 0x07, 0x00, 0x00, 0x00, 0x44, 0x00, 0x00, 0x00,
  0x04, 0x00, 0x00, 0x00, 0xc4, 0xfc, 0xff, 0xff, 0x30, 0x00, 0x00, 0x00,
  0x24, 0x00, 0x00, 0x00, 0x18, 0x00, 0x00, 0x00, 0x04, 0x00, 0x00, 0x00,
  0x01, 0x00, 0x00, 0x00, 0x00, 0x00, 0x00, 0x00, 0x00, 0x00, 0x00, 0x00,
  0x00, 0x00, 0x00, 0x00, 0x01, 0x00, 0x00, 0x00, 0xa3, 0xea, 0xd3, 0x3b,
  0x01, 0x00, 0x00, 0x00, 0xce, 0x42, 0x52, 0x3f, 0x01, 0x00, 0x00, 0x00,
  0xaa, 0xfc, 0x4d, 0xbf, 0x1b, 0x00, 0x00, 0x00, 0x73, 0x65, 0x71, 0x75,
  0x65, 0x6e, 0x74, 0x69, 0x61, 0x6c, 0x5f, 0x32, 0x2f, 0x64, 0x65, 0x6e,
  0x73, 0x65, 0x5f, 0x38, 0x2f, 0x4d, 0x61, 0x74, 0x4d, 0x75, 0x6c, 0x00,
  0x02, 0x00, 0x00, 0x00, 0x01, 0x00, 0x00, 0x00, 0x0f, 0x00, 0x00, 0x00,
  0x02, 0xfe, 0xff, 0xff, 0x00, 0x00, 0x00, 0x09, 0x6c, 0x00, 0x00, 0x00,
  0x06, 0x00, 0x00, 0x00, 0x44, 0x00, 0x00, 0x00, 0x04, 0x00, 0x00, 0x00,
  0x44, 0xfd, 0xff, 0xff, 0x30, 0x00, 0x00, 0x00, 0x24, 0x00, 0x00, 0x00,
  0x18, 0x00, 0x00, 0x00, 0x04, 0x00, 0x00, 0x00, 0x01, 0x00, 0x00, 0x00,
  0x00, 0x00, 0x00, 0x00, 0x00, 0x00, 0x00, 0x00, 0x00, 0x00, 0x00, 0x00,
  0x01, 0x00, 0x00, 0x00, 0x29, 0xcb, 0xd2, 0x3b, 0x01, 0x00, 0x00, 0x00,
  0x93, 0x25, 0x51, 0x3f, 0x01, 0x00, 0x00, 0x00, 0xbe, 0x33, 0x04, 0xbf,
  0x1b, 0x00, 0x00, 0x00, 0x73, 0x65, 0x71, 0x75, 0x65, 0x6e, 0x74, 0x69,
  0x61, 0x6c, 0x5f, 0x32, 0x2f, 0x64, 0x65, 0x6e, 0x73, 0x65, 0x5f, 0x37,
  0x2f, 0x4d, 0x61, 0x74, 0x4d, 0x75, 0x6c, 0x00, 0x02, 0x00, 0x00, 0x00,
  0x0f, 0x00, 0x00, 0x00, 0x1e, 0x00, 0x00, 0x00, 0x82, 0xfe, 0xff, 0xff,
  0x00, 0x00, 0x00, 0x09, 0x6c, 0x00, 0x00, 0x00, 0x05, 0x00, 0x00, 0x00,
  0x44, 0x00, 0x00, 0x00, 0x04, 0x00, 0x00, 0x00, 0xc4, 0xfd, 0xff, 0xff,
  0x30, 0x00, 0x00, 0x00, 0x24, 0x00, 0x00, 0x00, 0x18, 0x00, 0x00, 0x00,
  0x04, 0x00, 0x00, 0x00, 0x01, 0x00, 0x00, 0x00, 0x00, 0x00, 0x00, 0x00,
  0x00, 0x00, 0x00, 0x00, 0x00, 0x00, 0x00, 0x00, 0x01, 0x00, 0x00, 0x00,
  0xca, 0x80, 0x46, 0x3b, 0x01, 0x00, 0x00, 0x00, 0x00, 0x7c, 0xbb, 0x3e,
  0x01, 0x00, 0x00, 0x00, 0xc8, 0xf3, 0xc4, 0xbe, 0x1b, 0x00, 0x00, 0x00,
  0x73, 0x65, 0x71, 0x75, 0x65, 0x6e, 0x74, 0x69, 0x61, 0x6c, 0x5f, 0x32,
  0x2f, 0x64, 0x65, 0x6e, 0x73, 0x65, 0x5f, 0x36, 0x2f, 0x4d, 0x61, 0x74,
  0x4d, 0x75, 0x6c, 0x00, 0x02, 0x00, 0x00, 0x00, 0x1e, 0x00, 0x00, 0x00,
  0x5a, 0x00, 0x00, 0x00, 0x02, 0xff, 0xff, 0xff, 0x00, 0x00, 0x00, 0x02,
  0x70, 0x00, 0x00, 0x00, 0x04, 0x00, 0x00, 0x00, 0x2c, 0x00, 0x00, 0x00,
  0x04, 0x00, 0x00, 0x00, 0xf4, 0xfe, 0xff, 0xff, 0x18, 0x00, 0x00, 0x00,
  0x04, 0x00, 0x00, 0x00, 0x01, 0x00, 0x00, 0x00, 0x00, 0x00, 0x00, 0x00,
  0x00, 0x00, 0x00, 0x00, 0x00, 0x00, 0x00, 0x00, 0x01, 0x00, 0x00, 0x00,
  0x36, 0x9b, 0xa8, 0x38, 0x34, 0x00, 0x00, 0x00, 0x73, 0x65, 0x71, 0x75,
  0x65, 0x6e, 0x74, 0x69, 0x61, 0x6c, 0x5f, 0x32, 0x2f, 0x64, 0x65, 0x6e,
  0x73, 0x65, 0x5f, 0x38, 0x2f, 0x42, 0x69, 0x61, 0x73, 0x41, 0x64, 0x64,
  0x2f, 0x52, 0x65, 0x61, 0x64, 0x56, 0x61, 0x72, 0x69, 0x61, 0x62, 0x6c,
  0x65, 0x4f, 0x70, 0x2f, 0x72, 0x65, 0x73, 0x6f, 0x75, 0x72, 0x63, 0x65,
  0x00, 0x00, 0x00, 0x00, 0x01, 0x00, 0x00, 0x00, 0x01, 0x00, 0x00, 0x00,
  0x82, 0xff, 0xff, 0xff, 0x00, 0x00, 0x00, 0x02, 0x6c, 0x00, 0x00, 0x00,
  0x03, 0x00, 0x00, 0x00, 0x28, 0x00, 0x00, 0x00, 0x04, 0x00, 0x00, 0x00,
  0x74, 0xff, 0xff, 0xff, 0x14, 0x00, 0x00, 0x00, 0x04, 0x00, 0x00, 0x00,
  0x01, 0x00, 0x00, 0x00, 0x00, 0x00, 0x00, 0x00, 0x00, 0x00, 0x00, 0x00,
  0x01, 0x00, 0x00, 0x00, 0x04, 0x0a, 0x3d, 0x38, 0x34, 0x00, 0x00, 0x00,
  0x73, 0x65, 0x71, 0x75, 0x65, 0x6e, 0x74, 0x69, 0x61, 0x6c, 0x5f, 0x32,
  0x2f, 0x64, 0x65, 0x6e, 0x73, 0x65, 0x5f, 0x37, 0x2f, 0x42, 0x69, 0x61,
  0x73, 0x41, 0x64, 0x64, 0x2f, 0x52, 0x65, 0x61, 0x64, 0x56, 0x61, 0x72,
  0x69, 0x61, 0x62, 0x6c, 0x65, 0x4f, 0x70, 0x2f, 0x72, 0x65, 0x73, 0x6f,
  0x75, 0x72, 0x63, 0x65, 0x00, 0x00, 0x00, 0x00, 0x01, 0x00, 0x00, 0x00,
  0x0f, 0x00, 0x00, 0x00, 0x00, 0x00, 0x0e, 0x00, 0x18, 0x00, 0x08, 0x00,
  0x07, 0x00, 0x0c, 0x00, 0x10, 0x00, 0x14, 0x00, 0x0e, 0x00, 0x00, 0x00,
  0x00, 0x00, 0x00, 0x02, 0x7c, 0x00, 0x00, 0x00, 0x02, 0x00, 0x00, 0x00,
  0x38, 0x00, 0x00, 0x00, 0x10, 0x00, 0x00, 0x00, 0x0c, 0x00, 0x0c, 0x00,
  0x00, 0x00, 0x00, 0x00, 0x04, 0x00, 0x08, 0x00, 0x0c, 0x00, 0x00, 0x00,
  0x18, 0x00, 0x00, 0x00, 0x04, 0x00, 0x00, 0x00, 0x01, 0x00, 0x00, 0x00,
  0x00, 0x00, 0x00, 0x00, 0x00, 0x00, 0x00, 0x00, 0x00, 0x00, 0x00, 0x00,
  0x01, 0x00, 0x00, 0x00, 0x21, 0xb1, 0x97, 0x37, 0x34, 0x00, 0x00, 0x00,
  0x73, 0x65, 0x71, 0x75, 0x65, 0x6e, 0x74, 0x69, 0x61, 0x6c, 0x5f, 0x32,
  0x2f, 0x64, 0x65, 0x6e, 0x73, 0x65, 0x5f, 0x36, 0x2f, 0x42, 0x69, 0x61,
  0x73, 0x41, 0x64, 0x64, 0x2f, 0x52, 0x65, 0x61, 0x64, 0x56, 0x61, 0x72,
  0x69, 0x61, 0x62, 0x6c, 0x65, 0x4f, 0x70, 0x2f, 0x72, 0x65, 0x73, 0x6f,
  0x75, 0x72, 0x63, 0x65, 0x00, 0x00, 0x00, 0x00, 0x01, 0x00, 0x00, 0x00,
  0x1e, 0x00, 0x00, 0x00, 0x14, 0x00, 0x1c, 0x00, 0x08, 0x00, 0x07, 0x00,
  0x0c, 0x00, 0x10, 0x00, 0x14, 0x00, 0x00, 0x00, 0x00, 0x00, 0x18, 0x00,
  0x14, 0x00, 0x00, 0x00, 0x00, 0x00, 0x00, 0x09, 0x7c, 0x00, 0x00, 0x00,
  0x01, 0x00, 0x00, 0x00, 0x60, 0x00, 0x00, 0x00, 0x20, 0x00, 0x00, 0x00,
  0x04, 0x00, 0x00, 0x00, 0x02, 0x00, 0x00, 0x00, 0xff, 0xff, 0xff, 0xff,
  0x5a, 0x00, 0x00, 0x00, 0x0c, 0x00, 0x14, 0x00, 0x04, 0x00, 0x08, 0x00,
  0x0c, 0x00, 0x10, 0x00, 0x0c, 0x00, 0x00, 0x00, 0x30, 0x00, 0x00, 0x00,
  0x24, 0x00, 0x00, 0x00, 0x18, 0x00, 0x00, 0x00, 0x04, 0x00, 0x00, 0x00,
  0x01, 0x00, 0x00, 0x00, 0x80, 0xff, 0xff, 0xff, 0xff, 0xff, 0xff, 0xff,
  0x00, 0x00, 0x00, 0x00, 0x01, 0x00, 0x00, 0x00, 0x3e, 0xa1, 0xc3, 0x3b,
  0x01, 0x00, 0x00, 0x00, 0x9d, 0xdd, 0xc2, 0x3f, 0x01, 0x00, 0x00, 0x00,
  0x00, 0x00, 0x00, 0x00, 0x0d, 0x00, 0x00, 0x00, 0x64, 0x65, 0x6e, 0x73,
  0x65, 0x5f, 0x36, 0x5f, 0x69, 0x6e, 0x70, 0x75, 0x74, 0x00, 0x00, 0x00,
  0x02, 0x00, 0x00, 0x00, 0x01, 0x00, 0x00, 0x00, 0x5a, 0x00, 0x00, 0x00,
  0x03, 0x00, 0x00, 0x00, 0x3c, 0x00, 0x00, 0x00, 0x20, 0x00, 0x00, 0x00,
  0x04, 0x00, 0x00, 0x00, 0xf2, 0xff, 0xff, 0xff, 0x00, 0x00, 0x00, 0x06,
  0x02, 0x00, 0x00, 0x00, 0x00, 0x00, 0x0a, 0x00, 0x0e, 0x00, 0x07, 0x00,
  0x00, 0x00, 0x08, 0x00, 0x0a, 0x00, 0x00, 0x00, 0x00, 0x00, 0x00, 0x0e,
  0x02, 0x00, 0x00, 0x00, 0x00, 0x00, 0x0a, 0x00, 0x0c, 0x00, 0x07, 0x00,
  0x00, 0x00, 0x08, 0x00, 0x0a, 0x00, 0x00, 0x00, 0x00, 0x00, 0x00, 0x09,
  0x04, 0x00, 0x00, 0x00
};
unsigned int final_full_integer_quant_tflite_len = 5872;
