#ifdef __has_attribute
#define HAVE_ATTRIBUTE(x) __has_attribute(x)
#else
#define HAVE_ATTRIBUTE(x) 0
#endif
#if HAVE_ATTRIBUTE(aligned) || (defined(__GNUC__) && !defined(__clang__))
#define DATA_ALIGN_ATTRIBUTE __attribute__((aligned(4)))
#else
#define DATA_ALIGN_ATTRIBUTE
#endif
#undef min
#undef max

unsigned char final_dynamic_range_quantization_tflite[] = {
  0x1c, 0x00, 0x00, 0x00, 0x54, 0x46, 0x4c, 0x33, 0x00, 0x00, 0x12, 0x00,
  0x1c, 0x00, 0x04, 0x00, 0x08, 0x00, 0x0c, 0x00, 0x10, 0x00, 0x14, 0x00,
  0x00, 0x00, 0x18, 0x00, 0x12, 0x00, 0x00, 0x00, 0x03, 0x00, 0x00, 0x00,
  0x8c, 0x19, 0x00, 0x00, 0x04, 0x14, 0x00, 0x00, 0xec, 0x13, 0x00, 0x00,
  0x3c, 0x00, 0x00, 0x00, 0x04, 0x00, 0x00, 0x00, 0x01, 0x00, 0x00, 0x00,
  0x0c, 0x00, 0x00, 0x00, 0x08, 0x00, 0x0c, 0x00, 0x04, 0x00, 0x08, 0x00,
  0x08, 0x00, 0x00, 0x00, 0x08, 0x00, 0x00, 0x00, 0x0c, 0x00, 0x00, 0x00,
  0x13, 0x00, 0x00, 0x00, 0x6d, 0x69, 0x6e, 0x5f, 0x72, 0x75, 0x6e, 0x74,
  0x69, 0x6d, 0x65, 0x5f, 0x76, 0x65, 0x72, 0x73, 0x69, 0x6f, 0x6e, 0x00,
  0x0d, 0x00, 0x00, 0x00, 0x9c, 0x13, 0x00, 0x00, 0x88, 0x13, 0x00, 0x00,
  0xfc, 0x12, 0x00, 0x00, 0xa8, 0x12, 0x00, 0x00, 0x94, 0x12, 0x00, 0x00,
  0xf0, 0x07, 0x00, 0x00, 0xcc, 0x00, 0x00, 0x00, 0x78, 0x00, 0x00, 0x00,
  0x6c, 0x00, 0x00, 0x00, 0x58, 0x00, 0x00, 0x00, 0x44, 0x00, 0x00, 0x00,
  0x30, 0x00, 0x00, 0x00, 0x04, 0x00, 0x00, 0x00, 0x36, 0xed, 0xff, 0xff,
  0x04, 0x00, 0x00, 0x00, 0x10, 0x00, 0x00, 0x00, 0x31, 0x2e, 0x31, 0x34,
  0x2e, 0x30, 0x00, 0x00, 0x00, 0x00, 0x00, 0x00, 0x00, 0x00, 0x00, 0x00,
  0x00, 0x00, 0x00, 0x00, 0x00, 0x00, 0x00, 0x00, 0x00, 0x00, 0x00, 0x00,
  0x44, 0xe7, 0xff, 0xff, 0x00, 0x00, 0x00, 0x00, 0x00, 0x00, 0x00, 0x00,
  0x00, 0x00, 0x00, 0x00, 0x54, 0xe7, 0xff, 0xff, 0x00, 0x00, 0x00, 0x00,
  0x00, 0x00, 0x00, 0x00, 0x00, 0x00, 0x00, 0x00, 0x64, 0xe7, 0xff, 0xff,
  0x00, 0x00, 0x00, 0x00, 0x00, 0x00, 0x00, 0x00, 0x00, 0x00, 0x00, 0x00,
  0x74, 0xe7, 0xff, 0xff, 0x00, 0x00, 0x00, 0x00, 0x96, 0xed, 0xff, 0xff,
  0x04, 0x00, 0x00, 0x00, 0x3c, 0x00, 0x00, 0x00, 0x77, 0xa3, 0x12, 0xbf,
  0xe4, 0x92, 0x4c, 0xbf, 0xb3, 0xe0, 0x3e, 0x3f, 0xad, 0xcf, 0x3b, 0xbf,
  0xce, 0x42, 0x52, 0x3f, 0xc0, 0x8c, 0x0e, 0xbf, 0x0c, 0x24, 0x04, 0x3f,
  0x2e, 0xed, 0xf5, 0x3e, 0x90, 0x48, 0xe2, 0x3e, 0x01, 0xa8, 0x02, 0xbf,
  0x62, 0x3b, 0x0e, 0xbf, 0xaa, 0xfc, 0x4d, 0xbf, 0x91, 0x93, 0xf6, 0xbe,
  0x05, 0xab, 0xd9, 0xbe, 0x0a, 0xe1, 0xe5, 0x3e, 0x00, 0x00, 0x00, 0x00,
  0x00, 0x00, 0x00, 0x00, 0xe6, 0xed, 0xff, 0xff, 0x04, 0x00, 0x00, 0x00,
  0x08, 0x07, 0x00, 0x00, 0x14, 0x6d, 0x23, 0x3e, 0x8d, 0xaa, 0x20, 0x3f,
  0x0b, 0xa0, 0x92, 0xbe, 0x35, 0x3b, 0x03, 0x3f, 0x50, 0xe7, 0x85, 0xbd,
  0xb5, 0x1a, 0x37, 0x3e, 0xd4, 0xe1, 0xb7, 0x3e, 0x05, 0xc4, 0xa6, 0x3e,
  0x54, 0x2b, 0x69, 0xbe, 0xab, 0x94, 0x20, 0x3f, 0x6c, 0x74, 0xa1, 0xbe,
  0x2b, 0xed, 0x6a, 0x3e, 0xe2, 0x83, 0x1b, 0xbe, 0xa1, 0x5d, 0x83, 0x3e,
  0x01, 0x38, 0x26, 0x3e, 0x68, 0xbe, 0x7d, 0xbe, 0x1c, 0x3b, 0x3b, 0x3d,
  0xc1, 0xca, 0x94, 0x3d, 0x08, 0xc8, 0x68, 0xbe, 0x80, 0x58, 0x0f, 0x3e,
  0xfb, 0x8c, 0x89, 0xbe, 0x55, 0x43, 0x80, 0x3d, 0x91, 0xbf, 0xff, 0x3e,
  0x67, 0xba, 0xc4, 0x3d, 0x0b, 0x01, 0xcc, 0x3e, 0xcf, 0xa3, 0x4e, 0x3e,
  0x7c, 0x1c, 0x89, 0x3e, 0x70, 0x2b, 0x03, 0x3f, 0x3f, 0x50, 0xda, 0x3d,
  0xd4, 0xcf, 0x8f, 0xbe, 0xbe, 0x04, 0x88, 0xbe, 0xb5, 0xfe, 0x1b, 0x3f,
  0xa3, 0xf8, 0x6c, 0xbe, 0x2a, 0x21, 0x8c, 0x3e, 0x67, 0x90, 0xa3, 0xbd,
  0x72, 0x25, 0xfb, 0x3e, 0xe8, 0xd0, 0x27, 0x3d, 0x4b, 0x72, 0x4e, 0xbe,
  0x2c, 0x72, 0x92, 0xbd, 0xc1, 0xba, 0x07, 0x3e, 0x0c, 0x6b, 0x7a, 0xbe,
  0xd5, 0x07, 0x5d, 0x3e, 0xc4, 0xdd, 0x07, 0xbe, 0x67, 0x5f, 0x5e, 0x3e,
  0xf8, 0x4a, 0x4a, 0xbe, 0xf7, 0x1e, 0x9e, 0xbb, 0x39, 0x7a, 0x34, 0x3e,
  0x13, 0xe2, 0x33, 0x3e, 0x18, 0x90, 0x86, 0x3e, 0x46, 0x83, 0x04, 0x3f,
  0x97, 0xc0, 0xa8, 0xbd, 0xc7, 0xaa, 0x1b, 0xbe, 0x1d, 0xeb, 0xbc, 0xbd,
  0x85, 0x5d, 0xa3, 0x3d, 0x99, 0x13, 0x51, 0xbe, 0x7a, 0xf0, 0xa7, 0x3e,
  0x38, 0xf5, 0x44, 0x3e, 0xc6, 0x3d, 0x42, 0x3e, 0x70, 0x21, 0xb3, 0xbd,
  0x86, 0xce, 0x32, 0x3a, 0x1b, 0xf0, 0x0b, 0x3e, 0x3c, 0xf3, 0xbd, 0xbd,
  0x57, 0x44, 0xa8, 0x3e, 0x5a, 0xa2, 0x62, 0xbe, 0xb4, 0x8c, 0x16, 0x3f,
  0xd9, 0xe0, 0x61, 0xbe, 0xcd, 0x43, 0xc7, 0xbd, 0x95, 0xca, 0x73, 0xbe,
  0xc2, 0x4f, 0x4c, 0x3e, 0x23, 0x12, 0x99, 0x3d, 0x1e, 0x95, 0xa5, 0x3e,
  0x25, 0x6a, 0xb7, 0xbe, 0x88, 0x5d, 0xeb, 0xbd, 0x70, 0x90, 0xb9, 0xbd,
  0xf5, 0x0e, 0x21, 0x3d, 0x34, 0xe9, 0x9f, 0xbe, 0x1f, 0x97, 0x68, 0xbe,
  0xac, 0xde, 0x83, 0xbe, 0x7c, 0xa4, 0xb7, 0xbe, 0xe2, 0x4f, 0x9d, 0xbe,
  0xf1, 0x02, 0x7f, 0x3e, 0x03, 0x19, 0xa6, 0x3e, 0xa4, 0x08, 0x5b, 0xbe,
  0xa0, 0xa8, 0x58, 0xbe, 0x21, 0xc9, 0x49, 0x3b, 0x08, 0x62, 0xa3, 0xbe,
  0x11, 0xf4, 0x81, 0x3e, 0x07, 0xe9, 0x36, 0x3e, 0x87, 0xfa, 0x6f, 0x3e,
  0x80, 0xbb, 0x48, 0x3e, 0x00, 0x90, 0xb8, 0xbc, 0x8c, 0x29, 0x12, 0x3f,
  0x67, 0xe7, 0x80, 0xbe, 0x55, 0x8b, 0xd4, 0x3e, 0xae, 0x77, 0x17, 0x3c,
  0x8c, 0xfa, 0xa0, 0x3e, 0xf3, 0x6d, 0xa2, 0x3e, 0xbc, 0x52, 0x4c, 0x3e,
  0x33, 0x9f, 0xe5, 0xbc, 0xc4, 0xd4, 0x10, 0x3f, 0x67, 0x46, 0x31, 0xbe,
  0x3b, 0x58, 0xaa, 0xbb, 0x84, 0xb5, 0xe4, 0x3c, 0x0a, 0x88, 0xad, 0xbe,
  0x1a, 0xbb, 0x0d, 0xbc, 0x50, 0xf5, 0x9a, 0xbd, 0x9b, 0x44, 0xcd, 0x3e,
  0x75, 0x6b, 0x0f, 0x3f, 0xd8, 0x97, 0x21, 0x3e, 0x83, 0xf3, 0x01, 0x3f,
  0x0f, 0xef, 0x8e, 0xbe, 0xe8, 0x1c, 0x65, 0x3d, 0x26, 0x7e, 0xe4, 0x3e,
  0x8a, 0xd4, 0x64, 0x3e, 0x3d, 0x92, 0x78, 0x3e, 0xb6, 0xf0, 0x1a, 0xbe,
  0xd2, 0x10, 0xae, 0xbe, 0xd9, 0x3a, 0x27, 0x3d, 0xf2, 0x2e, 0x25, 0xbe,
  0x14, 0x25, 0x88, 0xbe, 0x10, 0x38, 0x6b, 0xbe, 0xa5, 0x02, 0xc9, 0xbe,
  0x26, 0xf3, 0x96, 0x3e, 0xed, 0xca, 0x1b, 0xbe, 0x4b, 0x8d, 0xea, 0x3e,
  0xf2, 0xef, 0x8b, 0xbe, 0x50, 0x12, 0x38, 0xbe, 0x2d, 0xf3, 0x7e, 0xbd,
  0x38, 0xdf, 0x54, 0x3e, 0x48, 0xea, 0x98, 0xbe, 0xec, 0xfc, 0xf4, 0x3d,
  0xaa, 0x23, 0xde, 0xbe, 0xe7, 0x09, 0xd8, 0x3e, 0x49, 0x56, 0xeb, 0x3d,
  0x4f, 0x40, 0xd7, 0x3b, 0xc3, 0x80, 0x7e, 0xbe, 0xf2, 0xfe, 0xb2, 0xbe,
  0x6d, 0x09, 0xcf, 0xbe, 0xe7, 0xda, 0x87, 0xbe, 0x4d, 0x10, 0x4f, 0xbe,
  0xd4, 0x70, 0x46, 0x3e, 0x3d, 0x3b, 0xc6, 0x3e, 0x1c, 0x17, 0x32, 0xbe,
  0x31, 0xe8, 0x22, 0xbd, 0xb4, 0xf3, 0x88, 0x3e, 0x83, 0x7d, 0xd4, 0xbe,
  0x6e, 0x41, 0xe3, 0xbc, 0x4b, 0xa4, 0x91, 0x3b, 0x66, 0x0d, 0x97, 0x3e,
  0xd9, 0x62, 0xd3, 0x3d, 0xfb, 0x89, 0x1b, 0x3e, 0xae, 0xc0, 0x52, 0x3e,
  0x06, 0xad, 0xb4, 0xbd, 0xda, 0xc0, 0x19, 0x3f, 0xb6, 0x80, 0x9d, 0xbd,
  0x0e, 0x66, 0xe0, 0x3e, 0x74, 0x82, 0x76, 0x3c, 0x08, 0xce, 0x2c, 0xbe,
  0x9e, 0xd7, 0x91, 0xbe, 0x02, 0x3b, 0xa0, 0x3d, 0xca, 0x79, 0x64, 0x3e,
  0x71, 0xbd, 0x2e, 0x3e, 0xe6, 0x8d, 0xb5, 0x3c, 0xf4, 0xb9, 0x5d, 0x3e,
  0xcc, 0x5f, 0xae, 0xbe, 0xc0, 0x91, 0x79, 0xbe, 0x03, 0x34, 0x4a, 0x3e,
  0x17, 0x38, 0x0c, 0x3f, 0xb9, 0x19, 0x28, 0x3e, 0xf7, 0x40, 0xc7, 0x3e,
  0x4d, 0xc9, 0x56, 0xbe, 0x70, 0xef, 0xd5, 0x3c, 0x3b, 0xa4, 0x8b, 0xbd,
  0xa8, 0x82, 0x50, 0x3e, 0x24, 0x78, 0x37, 0xbe, 0xfa, 0xec, 0x0e, 0x3f,
  0x80, 0xb8, 0x86, 0x3e, 0xe4, 0x80, 0xf3, 0x3e, 0x76, 0x5d, 0xfb, 0x3d,
  0x67, 0x45, 0xa2, 0xbd, 0x14, 0xfe, 0x80, 0xbe, 0x86, 0x1b, 0x04, 0xbe,
  0x9c, 0x1f, 0x36, 0x3e, 0x60, 0x53, 0x5f, 0xbe, 0x93, 0x25, 0x51, 0x3f,
  0xe6, 0xe5, 0x50, 0xbe, 0xbe, 0x33, 0x04, 0xbf, 0xeb, 0xb4, 0xb5, 0xbe,
  0x9c, 0x36, 0x63, 0x3e, 0xd5, 0x8a, 0xb2, 0xbe, 0x91, 0x76, 0xdb, 0x3d,
  0x22, 0x2d, 0x2e, 0x3d, 0x38, 0x23, 0xa2, 0x3e, 0x17, 0xdd, 0xbe, 0xbe,
  0xe7, 0x98, 0xa4, 0xbd, 0x58, 0x41, 0xff, 0xbe, 0x62, 0x82, 0x55, 0x3d,
  0xdf, 0xd9, 0x07, 0xbe, 0x8a, 0x6e, 0x69, 0xbe, 0xcf, 0x98, 0x79, 0xbe,
  0x6c, 0xc7, 0x52, 0x3e, 0xd0, 0x32, 0x06, 0x3e, 0xf1, 0xd1, 0xcf, 0x3b,
  0xb6, 0xbd, 0xaf, 0x3e, 0xfc, 0xe3, 0x26, 0x3d, 0x3b, 0x63, 0xf9, 0xbe,
  0x32, 0x7b, 0x84, 0xbe, 0xdd, 0xfc, 0xf5, 0xbd, 0x3a, 0xf9, 0xc5, 0x3e,
  0x06, 0x33, 0x2e, 0xbd, 0x0b, 0xec, 0xa9, 0x3e, 0x1b, 0x5e, 0xdc, 0xbd,
  0xf9, 0x33, 0x15, 0x3f, 0x67, 0x34, 0x20, 0xbe, 0x7d, 0x23, 0xae, 0x3d,
  0x25, 0xf2, 0x9d, 0xbe, 0xb8, 0xbd, 0x95, 0xbe, 0xe3, 0x1f, 0x2d, 0x3e,
  0x86, 0x8f, 0x7d, 0xbd, 0x08, 0xf5, 0xe9, 0xbe, 0xea, 0xab, 0xb9, 0x3e,
  0x44, 0xcd, 0xa9, 0xbb, 0x7b, 0xd2, 0x39, 0x3e, 0x86, 0x52, 0x57, 0x3e,
  0xcf, 0x0f, 0x8c, 0xbe, 0xdf, 0x44, 0x64, 0x3e, 0x57, 0x3b, 0xb6, 0xbe,
  0x38, 0xae, 0x33, 0xbc, 0xa0, 0x62, 0x78, 0x3e, 0x56, 0x33, 0xd1, 0xbe,
  0x71, 0x49, 0xd6, 0x3e, 0xda, 0xad, 0x9c, 0x3e, 0x5c, 0x91, 0x8a, 0xbd,
  0x44, 0xe1, 0x02, 0x3e, 0xe7, 0x34, 0x9b, 0xbe, 0x20, 0xd7, 0x9b, 0x3d,
  0x32, 0xc9, 0xa5, 0xbe, 0x6a, 0xa4, 0x46, 0xbe, 0x9f, 0x75, 0x66, 0x3e,
  0x9b, 0x6d, 0xb3, 0x3e, 0x38, 0x3c, 0xc2, 0x3d, 0xf3, 0x09, 0xc4, 0xbd,
  0xc1, 0x7b, 0xb5, 0x3d, 0xd4, 0xe0, 0x7c, 0xbb, 0xa0, 0x1a, 0x5b, 0x3e,
  0x82, 0xe6, 0x73, 0x3d, 0x45, 0x74, 0x94, 0xbe, 0xd4, 0x50, 0x37, 0xbe,
  0x7f, 0x25, 0x9d, 0x3e, 0xa0, 0x48, 0xb2, 0xbe, 0xf8, 0xd4, 0x4b, 0xbe,
  0x98, 0xed, 0xcc, 0xbe, 0xf6, 0x26, 0xea, 0x3e, 0x1e, 0x13, 0xb2, 0xbe,
  0x10, 0x4e, 0x64, 0x3e, 0x46, 0x28, 0xa0, 0xbe, 0x3b, 0x2d, 0x05, 0x3e,
  0x2e, 0xeb, 0x92, 0xbe, 0xed, 0xa5, 0x69, 0xbe, 0x93, 0x27, 0x1c, 0xbe,
  0x5f, 0x79, 0xf2, 0x3e, 0x19, 0x43, 0xe6, 0x3d, 0xa0, 0x5e, 0x7b, 0xbe,
  0x87, 0xe0, 0x51, 0xbe, 0xd3, 0x75, 0xab, 0xbc, 0x6e, 0xc2, 0xa4, 0xbe,
  0xee, 0x4d, 0xaa, 0x3d, 0x30, 0xa5, 0x82, 0x3d, 0xb3, 0x8b, 0x7d, 0x3e,
  0x2e, 0x5c, 0xeb, 0x3b, 0xe5, 0x05, 0xa9, 0x3e, 0x2f, 0xac, 0xb9, 0x3e,
  0xed, 0xb5, 0xbf, 0xbd, 0xeb, 0xbc, 0x0d, 0x3e, 0x1f, 0x7a, 0x3e, 0xbd,
  0xd3, 0xf6, 0xbb, 0x3d, 0x3d, 0xcd, 0x14, 0x3d, 0x9c, 0x16, 0xaf, 0xbe,
  0xf4, 0x05, 0x9f, 0xbe, 0x25, 0x11, 0xd8, 0x3e, 0x5d, 0x4a, 0x7c, 0xbe,
  0x94, 0xb7, 0x4d, 0x3e, 0x00, 0xf4, 0xb6, 0xbc, 0x60, 0x52, 0x45, 0xbb,
  0x72, 0x90, 0x42, 0x3e, 0x17, 0xbd, 0x81, 0xbc, 0xff, 0xfd, 0x27, 0x3e,
  0xfd, 0x0a, 0x0f, 0x3e, 0xfa, 0x31, 0xa0, 0xbe, 0xed, 0x08, 0x20, 0x3f,
  0xed, 0x08, 0x29, 0x3e, 0xf4, 0x98, 0x0a, 0xbe, 0x80, 0xa7, 0xcf, 0x3e,
  0x63, 0xc7, 0xba, 0x3d, 0xde, 0x63, 0xb0, 0x3e, 0x36, 0xd1, 0xb6, 0x3e,
  0x30, 0xcd, 0x42, 0xbe, 0x8a, 0xd0, 0xd3, 0x3e, 0xa9, 0xa7, 0x1f, 0xbe,
  0x79, 0x74, 0x3c, 0xbe, 0x50, 0xcd, 0xb3, 0x3e, 0x8d, 0x3b, 0x21, 0x3e,
  0xb0, 0xdc, 0x6b, 0xbe, 0x9d, 0x87, 0x2d, 0x3f, 0xdf, 0xa3, 0xac, 0xbc,
  0x53, 0x6e, 0x8d, 0x3e, 0xe1, 0x22, 0x67, 0xbd, 0x46, 0xe3, 0xc7, 0x3d,
  0xa4, 0x2d, 0xf9, 0xbd, 0x0a, 0x4e, 0x2b, 0x3f, 0x95, 0xb8, 0x79, 0xbd,
  0x99, 0xf0, 0x80, 0x3e, 0xc9, 0xe4, 0xbe, 0xbd, 0xd7, 0x09, 0xa9, 0xbe,
  0x49, 0xad, 0xcb, 0xbd, 0xfb, 0x2f, 0x35, 0x3e, 0xc2, 0x2c, 0x93, 0xbe,
  0x0a, 0x6a, 0xf5, 0x3e, 0x55, 0xbe, 0xc1, 0x3e, 0x8c, 0x3f, 0x17, 0x3f,
  0x14, 0xd6, 0xc8, 0xbd, 0x2c, 0xb8, 0xb3, 0xbd, 0x2d, 0x79, 0xcf, 0x3e,
  0x0e, 0xdd, 0x19, 0x3e, 0xb0, 0x47, 0x4b, 0x3e, 0xf0, 0xce, 0x60, 0x3e,
  0x26, 0xff, 0x1c, 0xbe, 0x6a, 0xc1, 0x2d, 0xbd, 0x03, 0x0b, 0xca, 0xbd,
  0xd0, 0x24, 0xda, 0xbd, 0x9a, 0xb2, 0x9e, 0xbe, 0x85, 0x6a, 0x42, 0x3e,
  0x99, 0xd7, 0x11, 0xbd, 0x35, 0x1a, 0xfc, 0x3e, 0xb6, 0x29, 0x20, 0xbe,
  0xe3, 0xcd, 0x05, 0x3f, 0x98, 0x6b, 0xac, 0x3e, 0x90, 0x68, 0x83, 0xbe,
  0x1d, 0xe2, 0x87, 0xbe, 0x0a, 0x42, 0x22, 0x3d, 0xb0, 0x6f, 0x6b, 0xbe,
  0x3b, 0x66, 0xc6, 0x3d, 0xa8, 0xbc, 0x92, 0xbd, 0x06, 0xb5, 0x2e, 0xbe,
  0xc2, 0xa1, 0x8b, 0xbe, 0x11, 0xf3, 0xc2, 0xbe, 0x8f, 0x64, 0x8a, 0x3d,
  0xc8, 0x8d, 0xcd, 0x3e, 0x6e, 0x87, 0xa6, 0x3c, 0x1e, 0xcd, 0xca, 0x3e,
  0x82, 0xa4, 0x0c, 0xbd, 0xed, 0x16, 0x84, 0xbe, 0x94, 0x5a, 0xcc, 0x3e,
  0xe9, 0x2c, 0xba, 0xbe, 0xed, 0x09, 0x1d, 0x3d, 0x43, 0x03, 0xba, 0x3d,
  0x21, 0x6a, 0xa9, 0x3e, 0x69, 0xcf, 0xac, 0x3e, 0x69, 0xde, 0x35, 0xbe,
  0xaf, 0x88, 0x3d, 0xbd, 0x16, 0x1f, 0x84, 0xbe, 0x1f, 0xde, 0xc2, 0x3e,
  0xd2, 0x4a, 0x8e, 0xbe, 0xdc, 0xd4, 0x2f, 0xbd, 0x83, 0xb5, 0x96, 0xbe,
  0xb5, 0x58, 0xe9, 0x3c, 0x31, 0x57, 0x92, 0x3e, 0x7c, 0x6b, 0x18, 0xbe,
  0xc6, 0xa0, 0x8a, 0xbe, 0xa4, 0xe7, 0x31, 0x3f, 0x11, 0x38, 0x50, 0x3e,
  0x34, 0x52, 0x72, 0x3e, 0x7f, 0x69, 0x9d, 0x3d, 0xc7, 0xb3, 0x09, 0xbe,
  0x45, 0x05, 0xa3, 0xbe, 0x65, 0x5c, 0x88, 0x3c, 0x41, 0x0e, 0x8f, 0xbe,
  0x1a, 0x0f, 0x4a, 0x3e, 0x28, 0x23, 0x34, 0xbe, 0x52, 0x97, 0xa8, 0x3e,
  0x4d, 0x36, 0xc6, 0xbc, 0x75, 0x35, 0x6a, 0xbe, 0x2e, 0xe2, 0x3f, 0x3e,
  0x07, 0x13, 0x7b, 0x3e, 0x99, 0x26, 0x58, 0x3e, 0x8e, 0x72, 0x4a, 0x3e,
  0xe8, 0x66, 0x7a, 0xbe, 0xea, 0x78, 0xef, 0x3e, 0xdd, 0x73, 0x26, 0x3c,
  0x3d, 0xa1, 0x49, 0x3e, 0xeb, 0x52, 0xa4, 0xbe, 0x7a, 0xe5, 0xa1, 0x3e,
  0xd1, 0x4d, 0xb4, 0xbc, 0x80, 0xa2, 0x21, 0x3f, 0xa9, 0x9f, 0x17, 0xbe,
  0x03, 0x02, 0xfa, 0x3d, 0x51, 0x96, 0x6b, 0xbb, 0xc4, 0x15, 0x95, 0xbe,
  0x60, 0x8f, 0x1c, 0xbe, 0xb1, 0xf9, 0x13, 0x3f, 0xc7, 0x5f, 0x38, 0x3e,
  0x03, 0x3a, 0x1b, 0xbd, 0x56, 0x74, 0x8d, 0xbe, 0x68, 0x86, 0x5b, 0xbd,
  0x2f, 0xaa, 0x0d, 0x3e, 0x3b, 0xed, 0x38, 0x3e, 0x14, 0xc3, 0x63, 0x3e,
  0xcc, 0x9a, 0x1a, 0x3f, 0x5e, 0xd0, 0x41, 0x3e, 0xfe, 0xad, 0x19, 0x3f,
  0x34, 0x90, 0x96, 0xbe, 0x28, 0xcd, 0x28, 0x3d, 0xec, 0xf0, 0xa6, 0x3e,
  0xcb, 0x31, 0x05, 0xbe, 0x11, 0xda, 0x7a, 0xbd, 0x9b, 0xf2, 0xbb, 0x3e,
  0xfb, 0x0b, 0x9a, 0x3e, 0x4f, 0x45, 0xc2, 0x3a, 0x2d, 0xae, 0x8f, 0xbe,
  0x8f, 0x15, 0x49, 0x3d, 0x00, 0x54, 0x1d, 0x3e, 0x92, 0xd3, 0x4b, 0xbe,
  0x90, 0x41, 0x03, 0x3f, 0x40, 0x07, 0xb5, 0xbd, 0xc0, 0x13, 0xda, 0x3d,
  0x80, 0x71, 0x2c, 0xbd, 0xc2, 0xe2, 0x9c, 0xbd, 0x59, 0x2a, 0x32, 0xbe,
  0x13, 0xdf, 0xa0, 0x3e, 0xa5, 0x4d, 0xde, 0xbe, 0xee, 0x9b, 0x87, 0x3a,
  0xe9, 0xe6, 0x6c, 0xbe, 0xb3, 0xd0, 0x5f, 0x3e, 0x1d, 0xaa, 0x77, 0xbe,
  0x03, 0xe7, 0x03, 0xbc, 0xc4, 0x66, 0xe4, 0xbd, 0x04, 0x93, 0x03, 0xbe,
  0x80, 0xc8, 0x2b, 0xbd, 0x4f, 0xf4, 0x60, 0xbe, 0x07, 0x3e, 0x23, 0xbe,
  0x06, 0x98, 0xc5, 0x3e, 0x83, 0x90, 0xab, 0x3e, 0x8b, 0xf5, 0x96, 0x3d,
  0xff, 0x78, 0x40, 0xbe, 0xb9, 0x33, 0xc9, 0xbe, 0xe1, 0x3d, 0xc1, 0x3c,
  0xfc, 0xc9, 0xdf, 0xbc, 0x5a, 0x4f, 0x99, 0xbe, 0xc5, 0x6f, 0x8f, 0x3e,
  0xad, 0xe6, 0x04, 0xbe, 0x00, 0x00, 0x00, 0x00, 0x00, 0x00, 0x00, 0x00,
  0x00, 0x00, 0x00, 0x00, 0x06, 0xf5, 0xff, 0xff, 0x04, 0x00, 0x00, 0x00,
  0x8c, 0x0a, 0x00, 0x00, 0xc5, 0xd6, 0xf9, 0xdd, 0xf7, 0x1a, 0xe9, 0x0f,
  0x1f, 0xc5, 0x3f, 0xd5, 0xcd, 0xb4, 0x13, 0x43, 0xcf, 0xb8, 0x1e, 0xbb,
  0x1c, 0xff, 0x3c, 0x1b, 0xd8, 0x04, 0xb5, 0xe7, 0xd8, 0xc8, 0x45, 0x35,
  0xc3, 0x41, 0xf8, 0xe0, 0x0b, 0x43, 0x23, 0xf9, 0x02, 0x12, 0xc6, 0xd7,
  0x37, 0xd1, 0xc1, 0xf5, 0xed, 0xda, 0xfd, 0x2a, 0xf6, 0xcb, 0x12, 0xcf,
  0x12, 0x22, 0x06, 0x30, 0x0d, 0xf3, 0xe0, 0xdb, 0x28, 0xe9, 0x0b, 0x02,
  0xe3, 0xdc, 0xf6, 0xdf, 0x19, 0xc5, 0xcd, 0xf7, 0xdb, 0xf3, 0xfe, 0xdd,
  0x3b, 0x01, 0x1b, 0xde, 0xec, 0xb8, 0xe7, 0xf7, 0x11, 0x37, 0x0e, 0x0e,
  0x29, 0x2d, 0xf1, 0x26, 0x19, 0x43, 0xda, 0x36, 0xf5, 0x0e, 0x23, 0xdc,
  0x39, 0xbf, 0xf7, 0x31, 0xf0, 0xc8, 0x30, 0x32, 0x6f, 0x16, 0xc6, 0xcd,
  0x30, 0xf3, 0xee, 0x22, 0xdd, 0x1f, 0xff, 0x03, 0xf4, 0xd6, 0x44, 0xdd,
  0xe9, 0xe9, 0x51, 0xbe, 0xe1, 0x06, 0x38, 0xce, 0xae, 0xa9, 0x01, 0xbf,
  0xf9, 0x00, 0xc6, 0x3c, 0xce, 0x27, 0x8f, 0x9c, 0xf9, 0xe3, 0x00, 0x53,
  0xd5, 0xbd, 0x1c, 0x0f, 0x06, 0xe9, 0x92, 0xbc, 0x1e, 0xd8, 0x13, 0x24,
  0xe1, 0x8b, 0xc2, 0xd0, 0xbb, 0x54, 0x22, 0x1c, 0xb4, 0xc5, 0xff, 0xc5,
  0xca, 0x2c, 0x02, 0x25, 0x8f, 0xbb, 0xcd, 0x3f, 0xd1, 0x1e, 0x1b, 0x16,
  0x01, 0x17, 0x42, 0xc6, 0x03, 0x2b, 0x16, 0x01, 0xf6, 0x2b, 0x03, 0xfa,
  0xef, 0x2b, 0x09, 0xf7, 0x06, 0x0b, 0x0c, 0xf1, 0xd0, 0x4d, 0xb8, 0xf9,
  0xe3, 0x37, 0x39, 0xa9, 0xc0, 0xb9, 0xd6, 0x0a, 0xef, 0xf2, 0x39, 0x1c,
  0x3a, 0xed, 0x0d, 0x25, 0x2d, 0xfd, 0x26, 0xe8, 0x15, 0xb1, 0xd7, 0xbd,
  0x48, 0x77, 0x37, 0xde, 0xee, 0x9c, 0x1a, 0x21, 0xa8, 0xe9, 0xf3, 0xed,
  0x4e, 0x08, 0xfe, 0x25, 0xa6, 0xe6, 0x6c, 0x5a, 0xf9, 0xf3, 0x3c, 0x31,
  0xf8, 0xef, 0x68, 0x0a, 0x55, 0x5a, 0xdd, 0x28, 0x13, 0x42, 0x43, 0x5c,
  0x30, 0xe3, 0x2c, 0x56, 0x22, 0x31, 0xc6, 0xf9, 0xfb, 0x34, 0xcb, 0xf8,
  0x5b, 0xdf, 0x43, 0x04, 0x2f, 0xc4, 0xda, 0xff, 0x02, 0x4a, 0xd9, 0xc2,
  0xeb, 0xf6, 0x13, 0x22, 0xb1, 0xe6, 0x07, 0x47, 0x01, 0xc3, 0x0e, 0x1e,
  0xb9, 0xcc, 0x3c, 0x02, 0xdd, 0x19, 0xfd, 0xc4, 0xdc, 0xfa, 0xe5, 0xf9,
  0xb7, 0x63, 0xc3, 0xba, 0xca, 0x09, 0xed, 0xb4, 0x24, 0xef, 0xf5, 0x14,
  0xcc, 0xda, 0xd9, 0x11, 0xc8, 0x1a, 0x0f, 0xf2, 0x26, 0xff, 0xda, 0x47,
  0xbd, 0x2f, 0xa9, 0xf6, 0x02, 0xfb, 0xbd, 0xfd, 0xed, 0xf4, 0xa5, 0xc7,
  0xeb, 0x5c, 0xd5, 0x0f, 0xb9, 0xa4, 0xf0, 0x08, 0x0b, 0x28, 0x18, 0xea,
  0xea, 0x0d, 0x1a, 0xf8, 0xf9, 0x22, 0xf2, 0x4c, 0x1a, 0xf8, 0xa3, 0xdb,
  0xca, 0xda, 0x3d, 0x15, 0x13, 0x00, 0x06, 0xaf, 0x16, 0x40, 0xff, 0xd6,
  0xf6, 0xc4, 0xff, 0xfd, 0xee, 0x12, 0x03, 0xf9, 0xc9, 0x52, 0x68, 0x05,
  0x48, 0x28, 0x11, 0x1e, 0x05, 0xcc, 0xdf, 0xbb, 0x24, 0xdc, 0x13, 0xe8,
  0x46, 0x1a, 0x15, 0xbd, 0x1f, 0xb1, 0xca, 0x4c, 0x89, 0xd8, 0x20, 0x21,
  0x31, 0x34, 0x4e, 0x38, 0xfd, 0xbb, 0xf6, 0x19, 0xcf, 0xe8, 0x02, 0xdc,
  0xe2, 0xfd, 0x21, 0x59, 0x68, 0xd2, 0x28, 0x44, 0x64, 0x3a, 0x3c, 0x16,
  0x75, 0xbb, 0x04, 0xfc, 0xb8, 0x18, 0xf9, 0x46, 0x2d, 0x0e, 0xfb, 0xbf,
  0x70, 0xe9, 0xe0, 0x00, 0x18, 0x05, 0xd5, 0x3a, 0x02, 0xdf, 0xf0, 0xee,
  0x1c, 0x38, 0x20, 0xf1, 0x2c, 0x27, 0x09, 0x3e, 0x31, 0x1d, 0xec, 0x23,
  0x40, 0xd9, 0x0a, 0x3f, 0xef, 0x0f, 0x47, 0xe2, 0xa3, 0x09, 0x10, 0x10,
  0xba, 0x0e, 0x8d, 0xc6, 0xab, 0x45, 0xc3, 0xaa, 0xef, 0x2a, 0xb5, 0x33,
  0x38, 0xc1, 0xe5, 0xce, 0x02, 0x00, 0xeb, 0xa6, 0x1c, 0xf6, 0x0d, 0xd4,
  0x1e, 0x1d, 0xcc, 0xc3, 0xac, 0x27, 0xc2, 0x04, 0xa9, 0xf3, 0xf7, 0xd2,
  0xda, 0x18, 0x10, 0x10, 0x17, 0x32, 0x67, 0xfc, 0xe3, 0x28, 0x1c, 0x15,
  0xf7, 0x3e, 0xbb, 0x37, 0x28, 0x03, 0x2e, 0xbd, 0x18, 0x1e, 0x1a, 0xe3,
  0x00, 0x25, 0x08, 0x2e, 0x1f, 0xd5, 0xf7, 0x33, 0x1e, 0xb7, 0x27, 0xe5,
  0x25, 0x15, 0x04, 0x33, 0x1a, 0xfc, 0xd7, 0xe6, 0x11, 0xc7, 0xec, 0x22,
  0xf3, 0xc2, 0xad, 0xbd, 0xd3, 0x15, 0x0d, 0xff, 0xf7, 0x2b, 0xdb, 0x2e,
  0xbd, 0xdd, 0xf1, 0xf1, 0xe5, 0xfd, 0x16, 0x85, 0x25, 0x23, 0x3d, 0xff,
  0x02, 0xe4, 0xf8, 0xc5, 0x64, 0x17, 0x0c, 0xc4, 0xe4, 0x06, 0xff, 0xf7,
  0xe6, 0x01, 0x91, 0xa9, 0xe4, 0x02, 0xee, 0x3c, 0xd2, 0xdd, 0xfe, 0x09,
  0xb8, 0xe9, 0xc6, 0x10, 0xae, 0xd5, 0x01, 0x3b, 0xcb, 0xec, 0x10, 0xe6,
  0x02, 0xd4, 0x1d, 0xf5, 0x17, 0x14, 0x25, 0x05, 0xfa, 0xfa, 0xea, 0xd0,
  0xeb, 0xf1, 0xe0, 0xee, 0xa8, 0x1d, 0xaa, 0xd7, 0x05, 0x38, 0x13, 0xcd,
  0xf6, 0x01, 0xc4, 0xe7, 0x2f, 0x34, 0x36, 0x20, 0x10, 0x01, 0xe5, 0x3a,
  0x35, 0xfc, 0xc6, 0x21, 0xe6, 0x32, 0x02, 0x2a, 0xdb, 0xd1, 0x1f, 0x36,
  0x05, 0x22, 0xbe, 0x00, 0x2b, 0xfc, 0x32, 0xab, 0x0f, 0xe3, 0xf0, 0xdc,
  0x2e, 0x35, 0xbf, 0x3b, 0xee, 0xae, 0x1b, 0xc4, 0xdb, 0x17, 0x0f, 0x19,
  0xb5, 0x1c, 0xb8, 0xac, 0xf1, 0xe6, 0xa5, 0x36, 0x14, 0x34, 0x35, 0xde,
  0x43, 0x10, 0x10, 0xe2, 0x05, 0x32, 0xfe, 0xd3, 0xd0, 0xeb, 0x0c, 0xfd,
  0xd2, 0x0a, 0x09, 0x0d, 0x3a, 0x11, 0x13, 0xaa, 0xfa, 0xe1, 0x20, 0xb1,
  0x0f, 0x1a, 0xf8, 0x18, 0x11, 0xc2, 0xc8, 0x2f, 0x00, 0x51, 0x02, 0xc1,
  0x01, 0x3f, 0x4d, 0x1e, 0x16, 0xfb, 0x19, 0x11, 0x72, 0xbf, 0x1b, 0x02,
  0x52, 0x61, 0xfb, 0x0f, 0xf3, 0xfb, 0xf5, 0x01, 0xe5, 0xf5, 0xd9, 0x1d,
  0xe2, 0xf0, 0xf7, 0x11, 0xd4, 0xbd, 0x44, 0x3d, 0x19, 0xf5, 0x52, 0xc7,
  0x26, 0xf9, 0x3d, 0x71, 0x27, 0x4b, 0xf6, 0xe3, 0x4b, 0xec, 0x46, 0xf0,
  0x08, 0x26, 0x54, 0xdc, 0xf2, 0x2f, 0xa9, 0x32, 0xb4, 0xdb, 0x1f, 0xfc,
  0x12, 0xd4, 0x2c, 0x14, 0x38, 0xf4, 0x20, 0x30, 0x52, 0xc4, 0x26, 0x32,
  0xf0, 0x1c, 0xc4, 0x12, 0x0e, 0xde, 0xef, 0xc6, 0xf7, 0xf7, 0x42, 0x03,
  0x35, 0xcd, 0x1a, 0x0b, 0xea, 0x9d, 0x03, 0xe5, 0x31, 0xb9, 0xcc, 0xc1,
  0xcc, 0x77, 0xf5, 0x19, 0x82, 0x5c, 0xe7, 0xc6, 0xb2, 0x21, 0xba, 0xfe,
  0x2e, 0xd7, 0x31, 0xbf, 0x2f, 0xca, 0x07, 0xb7, 0xa4, 0x0b, 0x00, 0xd8,
  0x17, 0x0c, 0x00, 0x3b, 0xf7, 0x16, 0x18, 0xb3, 0x94, 0xdd, 0x92, 0x06,
  0xe9, 0xc5, 0xfa, 0x24, 0x22, 0x07, 0x20, 0x24, 0x0a, 0xcb, 0x4a, 0xb3,
  0xb5, 0x24, 0x09, 0xa4, 0x09, 0xcf, 0xee, 0xf0, 0xdb, 0xc8, 0x1e, 0xc5,
  0xfa, 0x04, 0xd1, 0xe4, 0x34, 0x0a, 0xd9, 0x04, 0xec, 0xa9, 0xd1, 0x2a,
  0xea, 0xe6, 0xe0, 0x09, 0x3f, 0x26, 0x3a, 0xa6, 0xe9, 0xe7, 0x2e, 0x38,
  0xc9, 0xed, 0xc7, 0x30, 0xb0, 0x16, 0x1a, 0xcf, 0xcd, 0xac, 0x26, 0xdd,
  0xda, 0xc5, 0xeb, 0xbd, 0xd4, 0x29, 0x27, 0x25, 0x44, 0xd6, 0x13, 0xed,
  0xe4, 0xc8, 0x3d, 0x09, 0x22, 0xed, 0x26, 0x19, 0xe8, 0x20, 0xf8, 0x41,
  0x12, 0x25, 0x33, 0xed, 0xea, 0xc7, 0xc6, 0xad, 0xef, 0x4a, 0xb4, 0xec,
  0xde, 0x1f, 0x01, 0xbf, 0x30, 0xf3, 0xc1, 0xc8, 0x2b, 0x2f, 0xce, 0xe4,
  0xfd, 0x1e, 0xb6, 0x27, 0x35, 0x0d, 0xe1, 0x26, 0xa8, 0x0d, 0xd8, 0xe6,
  0x20, 0xf4, 0x22, 0xbd, 0xc6, 0x0b, 0x34, 0xf3, 0xd5, 0xc9, 0x3e, 0x06,
  0xd6, 0xac, 0xbd, 0x23, 0xbc, 0x25, 0xe6, 0x0e, 0x16, 0xf3, 0xe2, 0xd5,
  0x10, 0x13, 0xc5, 0x2c, 0x40, 0xe2, 0xef, 0xd5, 0xff, 0x2f, 0x57, 0xec,
  0xac, 0x00, 0xdc, 0x31, 0x0d, 0x3b, 0xd2, 0xa9, 0x14, 0xad, 0x0f, 0x4d,
  0x5a, 0xdd, 0x35, 0xe0, 0x0f, 0x29, 0x4f, 0xf9, 0xa8, 0x12, 0x04, 0xcf,
  0xe9, 0x39, 0x1f, 0x3e, 0xe1, 0xf7, 0x12, 0x06, 0x38, 0x15, 0x05, 0xdb,
  0xe5, 0xe6, 0x06, 0xe3, 0xc2, 0x25, 0xb8, 0x53, 0xd8, 0xfb, 0xe8, 0x4b,
  0x2f, 0x07, 0x05, 0xbe, 0xf4, 0x29, 0xf5, 0x10, 0x00, 0xe1, 0x0a, 0x28,
  0xb8, 0xed, 0xa9, 0xbf, 0x1d, 0xfc, 0xbf, 0xcb, 0xa9, 0xca, 0x0a, 0x39,
  0x1f, 0xf2, 0x1e, 0x47, 0x0d, 0xf9, 0x40, 0xe3, 0x5d, 0x1b, 0xe9, 0xd6,
  0xfa, 0xf7, 0xd2, 0xd8, 0x5c, 0xf7, 0x0e, 0xe3, 0xa8, 0xd9, 0xef, 0x15,
  0xf5, 0x1a, 0x48, 0x06, 0x08, 0x2e, 0xe3, 0x4c, 0x47, 0x39, 0xd5, 0x27,
  0xfe, 0x46, 0x27, 0x6d, 0xfa, 0x5c, 0xf0, 0xfc, 0x23, 0xc6, 0xc2, 0x12,
  0xed, 0xee, 0xf7, 0x40, 0xeb, 0xf1, 0x39, 0x13, 0xff, 0x3c, 0xec, 0x26,
  0xbe, 0xb3, 0xd4, 0xe7, 0xd0, 0xfe, 0xdc, 0xcf, 0xc5, 0x32, 0xf2, 0xeb,
  0xfb, 0xc5, 0xfd, 0xbe, 0xc6, 0x07, 0xab, 0x0d, 0xc4, 0xd2, 0x0b, 0xaf,
  0xe7, 0x23, 0xf3, 0xee, 0x17, 0xcb, 0xca, 0xdc, 0xd7, 0x03, 0x40, 0x08,
  0xaf, 0xb3, 0x2b, 0x11, 0x37, 0x37, 0xc8, 0x3d, 0x11, 0x0a, 0x06, 0xe2,
  0x4b, 0xee, 0x33, 0xe8, 0xb9, 0x41, 0x12, 0xac, 0xd4, 0xc1, 0x3f, 0x28,
  0xdc, 0xd3, 0x32, 0xbd, 0x2d, 0x1b, 0x30, 0x34, 0x30, 0x34, 0xd2, 0xe1,
  0xc3, 0x31, 0xcd, 0x19, 0x0f, 0xe7, 0x08, 0x07, 0x0e, 0x2c, 0x3a, 0x0b,
  0x29, 0x1f, 0x19, 0xd7, 0x46, 0xc3, 0xd9, 0xeb, 0xcb, 0xf6, 0x25, 0xd8,
  0x34, 0xcb, 0xb4, 0xd0, 0x26, 0x43, 0xfc, 0xae, 0x23, 0xcb, 0xe0, 0xaa,
  0x1f, 0xdb, 0xd0, 0x50, 0xe9, 0x24, 0x2f, 0xd5, 0x0a, 0xe2, 0x32, 0x21,
  0x2b, 0xd3, 0xcf, 0x38, 0x3e, 0xcc, 0xd6, 0x32, 0xc1, 0xd2, 0xfa, 0x1d,
  0x10, 0x02, 0xfa, 0xbe, 0xdc, 0x3a, 0x0a, 0xed, 0x3b, 0xf0, 0x1d, 0x4f,
  0xfe, 0xcb, 0x2d, 0x16, 0xdc, 0x0a, 0x1e, 0xc5, 0x34, 0xd2, 0xd5, 0x2e,
  0x10, 0x3a, 0x19, 0x13, 0xba, 0xfd, 0xce, 0xf1, 0xd0, 0x30, 0x20, 0xbe,
  0x1a, 0xe9, 0xe3, 0xb1, 0xeb, 0xc0, 0xbf, 0xb1, 0xd3, 0xca, 0xd9, 0xdd,
  0xc9, 0xc9, 0xab, 0xc7, 0x25, 0x0e, 0xcc, 0x2d, 0x06, 0x24, 0x43, 0xf9,
  0x44, 0x37, 0x05, 0xf5, 0x48, 0x26, 0xfc, 0x25, 0x3c, 0xdf, 0x0b, 0xca,
  0x16, 0xc7, 0x1b, 0xd2, 0x3a, 0xfa, 0xfa, 0xe2, 0x2f, 0x35, 0xcc, 0x48,
  0x39, 0xee, 0x1e, 0x0b, 0xf1, 0xd4, 0x39, 0xc3, 0x2b, 0x2d, 0xc8, 0x44,
  0x48, 0xcf, 0xeb, 0xce, 0x1d, 0xee, 0xf4, 0x13, 0x0e, 0xd2, 0x0b, 0x2a,
  0x44, 0xb9, 0x3a, 0xd1, 0x28, 0xcf, 0xc6, 0xed, 0x2b, 0xc1, 0x3c, 0xf7,
  0x29, 0xcb, 0xce, 0xdf, 0xec, 0x0d, 0xd0, 0xd2, 0x14, 0xfd, 0xd0, 0x15,
  0xf6, 0x04, 0xf7, 0xdd, 0x48, 0xdb, 0x01, 0x22, 0xf5, 0xde, 0xec, 0xe8,
  0x29, 0xf9, 0xe5, 0x03, 0xff, 0x04, 0xe9, 0xd6, 0x13, 0x18, 0xc6, 0x2e,
  0x2e, 0x36, 0xe8, 0x23, 0x02, 0x22, 0x16, 0x0f, 0x04, 0x26, 0x3b, 0x27,
  0x54, 0xa7, 0xca, 0xd8, 0x47, 0xee, 0xcd, 0x17, 0xe5, 0xe3, 0xdb, 0x0b,
  0xd1, 0x22, 0x0f, 0xc8, 0xc2, 0xf0, 0x47, 0x2e, 0xf8, 0x4d, 0x27, 0xaf,
  0xa8, 0xa8, 0x22, 0xc7, 0xa2, 0xf3, 0xfd, 0xfd, 0x13, 0xf0, 0xc7, 0xd8,
  0xe1, 0x2e, 0xbc, 0x16, 0x49, 0x22, 0x23, 0xf4, 0x23, 0xe0, 0x24, 0x4b,
  0x57, 0xe7, 0x34, 0x46, 0x2f, 0x57, 0x33, 0x2e, 0x40, 0x05, 0x40, 0xc2,
  0xe9, 0x24, 0xe7, 0x14, 0xd8, 0xbf, 0x40, 0xe9, 0x56, 0xfe, 0x47, 0xae,
  0xe5, 0xcd, 0xba, 0x3d, 0x1a, 0x18, 0x20, 0xa7, 0x1e, 0x0e, 0xd5, 0x0f,
  0x4c, 0xd2, 0x24, 0xd1, 0x36, 0x27, 0xc7, 0xff, 0xff, 0xe6, 0xf1, 0xaa,
  0xe9, 0x33, 0xde, 0x4d, 0x05, 0xf4, 0x81, 0xbf, 0xcc, 0xdb, 0xe6, 0x2b,
  0xc7, 0xbd, 0xea, 0x2d, 0x15, 0xb2, 0xd2, 0xe2, 0xc8, 0x0b, 0xa9, 0xc2,
  0xfb, 0x83, 0x14, 0xe1, 0xe0, 0x51, 0xdb, 0x98, 0xe8, 0xe8, 0xed, 0xfc,
  0xb4, 0xe1, 0xe0, 0xeb, 0x2e, 0xc4, 0xcf, 0xfb, 0x30, 0x10, 0xf6, 0x0a,
  0x40, 0xe3, 0xe4, 0xc3, 0xd7, 0x3a, 0x35, 0xcc, 0xf0, 0xf7, 0x18, 0x0b,
  0xff, 0x1b, 0x08, 0x26, 0xca, 0x32, 0xbb, 0xfc, 0x18, 0x1a, 0x29, 0xd4,
  0x17, 0x3f, 0xd4, 0x26, 0xfc, 0x27, 0x0e, 0xe4, 0xee, 0x0a, 0x29, 0x19,
  0xf0, 0xfd, 0xd9, 0xc4, 0xc6, 0x19, 0xf1, 0xda, 0xf2, 0xc1, 0x20, 0x4f,
  0xb1, 0xd2, 0xf3, 0x07, 0x37, 0x11, 0xd2, 0xf5, 0x21, 0xbc, 0x42, 0xed,
  0xac, 0xea, 0xed, 0x2d, 0xe9, 0xe5, 0xcf, 0xf1, 0xb7, 0x0b, 0xf1, 0x36,
  0xd0, 0xd7, 0x26, 0x32, 0xdc, 0x33, 0xb8, 0xda, 0x0f, 0xfc, 0x2a, 0x51,
  0xfc, 0x20, 0x13, 0xdd, 0x43, 0x37, 0x15, 0x40, 0xef, 0x66, 0xc4, 0xa3,
  0x16, 0x1c, 0xe6, 0xdb, 0x0e, 0x2f, 0xe0, 0x03, 0x0a, 0x3c, 0x14, 0xd0,
  0x42, 0xfa, 0xf0, 0xfa, 0xec, 0x1a, 0xd9, 0xc2, 0x1c, 0x05, 0xed, 0x56,
  0xf7, 0x39, 0x09, 0xfd, 0xda, 0x9a, 0xab, 0x31, 0xa1, 0xcc, 0xf2, 0xf1,
  0xfb, 0x0a, 0x0e, 0xfd, 0xa0, 0x0f, 0x96, 0x08, 0xdb, 0x27, 0x0f, 0x0b,
  0xcc, 0xa6, 0x52, 0xf5, 0x1a, 0x06, 0xc0, 0x88, 0xe8, 0xde, 0x2b, 0x37,
  0xd5, 0xfd, 0xcb, 0x64, 0xe9, 0x01, 0x0c, 0xb7, 0xc4, 0x12, 0xc2, 0xef,
  0xea, 0x02, 0xf8, 0x21, 0xb9, 0xea, 0x15, 0xe2, 0xfa, 0xde, 0xf3, 0xd7,
  0x23, 0xbd, 0x03, 0x0b, 0xdd, 0x17, 0x18, 0xe4, 0xdb, 0x02, 0x10, 0x2b,
  0xf8, 0x1c, 0x1f, 0xf7, 0xe1, 0xe4, 0xf4, 0xc6, 0x04, 0x02, 0x20, 0xfd,
  0x2c, 0xd7, 0x13, 0x10, 0x13, 0x97, 0xfa, 0xdc, 0x08, 0x24, 0x47, 0x0e,
  0x04, 0x18, 0x68, 0x35, 0xdb, 0x38, 0x1e, 0x08, 0x38, 0xb5, 0x23, 0xba,
  0x4c, 0x48, 0x3a, 0xaf, 0xda, 0xcd, 0x06, 0x37, 0x9e, 0xe6, 0xd6, 0x41,
  0xf3, 0x5f, 0x52, 0x28, 0xde, 0x09, 0x2a, 0x0a, 0xfd, 0xeb, 0x07, 0xb5,
  0x40, 0xfd, 0x4b, 0x62, 0x66, 0x55, 0x31, 0xad, 0x24, 0x28, 0x20, 0x11,
  0xca, 0x28, 0xfe, 0xd3, 0x34, 0xa8, 0x30, 0xf0, 0x31, 0xc8, 0xc5, 0xdd,
  0x32, 0xf9, 0xd3, 0x10, 0xf8, 0x1e, 0x2e, 0x39, 0xcf, 0x02, 0xc3, 0x23,
  0x20, 0xb4, 0xf7, 0x5c, 0x13, 0x1c, 0x39, 0xcc, 0x0d, 0xcc, 0xce, 0x99,
  0x3e, 0xe3, 0x24, 0xfe, 0xe8, 0xdd, 0x42, 0xfe, 0x1e, 0x10, 0xe6, 0x41,
  0x2e, 0xb6, 0x46, 0x06, 0xf8, 0xf3, 0xf5, 0x16, 0x4b, 0xdd, 0xd2, 0x29,
  0xf1, 0x08, 0xc1, 0xe9, 0x0c, 0xe4, 0x3d, 0x1c, 0xf7, 0x4f, 0xc0, 0xf1,
  0x57, 0x39, 0x06, 0xf3, 0x5e, 0xf5, 0x2b, 0x54, 0x71, 0x0f, 0xf0, 0x17,
  0x11, 0xbb, 0x39, 0x26, 0x36, 0x1d, 0x2e, 0x43, 0xda, 0x4e, 0x25, 0x49,
  0x19, 0xe6, 0xb9, 0x17, 0xf6, 0xd5, 0x06, 0x4c, 0xd7, 0x2b, 0xf3, 0x45,
  0x12, 0xda, 0x47, 0xb8, 0xea, 0x3b, 0x1e, 0x47, 0x30, 0xbb, 0x02, 0x35,
  0xda, 0x00, 0x10, 0xd7, 0xb9, 0x05, 0xaa, 0x23, 0xf5, 0x04, 0x46, 0xf3,
  0xb9, 0x19, 0xd9, 0xc4, 0x10, 0xa7, 0x42, 0x19, 0xea, 0xf7, 0x17, 0x0f,
  0x06, 0x05, 0xc6, 0x04, 0x98, 0x03, 0x03, 0x1b, 0xba, 0xa7, 0x23, 0xd0,
  0xa8, 0xda, 0xce, 0xef, 0x10, 0x2c, 0xdb, 0xb1, 0xff, 0xf7, 0xd4, 0xb0,
  0xe8, 0x0b, 0xc9, 0xef, 0xc6, 0x35, 0x9e, 0xc6, 0xf6, 0x2f, 0xe7, 0xf2,
  0xe1, 0xc7, 0xc4, 0xfd, 0xed, 0x1b, 0xed, 0xd8, 0x09, 0xd4, 0xfc, 0xb8,
  0xd9, 0xb3, 0x41, 0xef, 0xb3, 0x34, 0x13, 0xc0, 0xfe, 0xd9, 0xf2, 0x0b,
  0xb2, 0xc3, 0xf4, 0xf3, 0xd5, 0xfe, 0xd4, 0xf3, 0x29, 0xdc, 0xb0, 0xd2,
  0x20, 0x06, 0x09, 0xf8, 0xf1, 0xbe, 0xca, 0xfe, 0x2c, 0xd7, 0xd3, 0x18,
  0x16, 0x39, 0x35, 0xee, 0xfc, 0xe2, 0xdc, 0xe7, 0x3a, 0xea, 0xe9, 0x0e,
  0xf0, 0x0e, 0xc0, 0x28, 0xdd, 0xe9, 0x32, 0xc9, 0x16, 0xdc, 0x37, 0x36,
  0xde, 0xb0, 0xf9, 0x41, 0x3e, 0xcd, 0xf4, 0xf1, 0xd0, 0x13, 0x2b, 0xb1,
  0x09, 0xb9, 0xec, 0x22, 0xf3, 0x31, 0x1e, 0xf4, 0xc0, 0xc0, 0x3a, 0xc8,
  0x02, 0xfa, 0x45, 0x14, 0x20, 0xf1, 0x4c, 0xef, 0x32, 0xe5, 0xc4, 0xba,
  0x46, 0x05, 0x02, 0xd1, 0xc9, 0xdb, 0x20, 0x05, 0x3c, 0x16, 0xf3, 0xc3,
  0xc5, 0x2d, 0x17, 0xd9, 0x2c, 0xe4, 0x1f, 0xc9, 0x28, 0xbc, 0xbd, 0xcd,
  0xc1, 0xc3, 0xb6, 0xe6, 0x41, 0x07, 0xae, 0xbe, 0x16, 0x24, 0x20, 0x2a,
  0x0b, 0x0d, 0xe8, 0x1e, 0xdf, 0xb5, 0xc3, 0x15, 0xc4, 0xdd, 0xdb, 0xeb,
  0x02, 0x0b, 0x01, 0x3c, 0xb3, 0x02, 0x29, 0xf5, 0x08, 0x3d, 0xcb, 0x1b,
  0xff, 0xd8, 0x35, 0x23, 0x20, 0xcc, 0xdc, 0xe7, 0xbf, 0x43, 0x2a, 0x44,
  0x31, 0x2e, 0x37, 0x46, 0x23, 0x2a, 0xf5, 0xf8, 0xf9, 0x18, 0xfe, 0x16,
  0xe9, 0xef, 0xb1, 0xff, 0xcf, 0xbb, 0x0e, 0xc5, 0x3e, 0x3d, 0x1a, 0x20,
  0xc4, 0xed, 0xe6, 0xdb, 0xec, 0x26, 0x29, 0x09, 0x18, 0x07, 0x53, 0xd4,
  0x15, 0xbb, 0x1f, 0x4d, 0x2d, 0xe7, 0x32, 0xee, 0xbb, 0xe5, 0xc6, 0xcf,
  0xef, 0x43, 0xb4, 0xe8, 0xdd, 0xe2, 0xbb, 0xc3, 0x10, 0xe0, 0xe3, 0xd5,
  0xca, 0xa7, 0xce, 0x28, 0x11, 0xca, 0xeb, 0x9c, 0x3a, 0x0a, 0xb4, 0xb5,
  0xf7, 0x31, 0xcd, 0x19, 0xe5, 0xcb, 0xe6, 0x3e, 0x9c, 0xfd, 0xe9, 0x38,
  0xf2, 0xce, 0xc9, 0xb9, 0xcb, 0xb6, 0xbd, 0xd7, 0x41, 0x18, 0xce, 0xc3,
  0xd9, 0x1d, 0x09, 0x2a, 0xc1, 0xd3, 0x36, 0x08, 0x00, 0xcc, 0x03, 0x07,
  0xeb, 0xed, 0x1c, 0xe8, 0xed, 0xd4, 0xb8, 0x3e, 0x1b, 0x10, 0x14, 0x40,
  0x38, 0xd4, 0xc9, 0xc9, 0xfa, 0xc8, 0xd0, 0xba, 0xcd, 0xd5, 0x28, 0xf7,
  0x13, 0xbd, 0x04, 0x3c, 0x2e, 0x12, 0xe0, 0xdc, 0xfc, 0x42, 0x3c, 0xf2,
  0x2f, 0x41, 0x0c, 0xb4, 0x2e, 0xda, 0xb7, 0x21, 0x21, 0xfb, 0xbd, 0xcb,
  0x2a, 0xc7, 0x38, 0xca, 0x0a, 0xe9, 0x0d, 0xb4, 0x36, 0xbf, 0xe9, 0xcd,
  0x2e, 0x25, 0xcf, 0x11, 0xcb, 0xf0, 0xd1, 0x25, 0xbe, 0x04, 0x51, 0x23,
  0x45, 0xca, 0xd8, 0xfc, 0x12, 0x59, 0x36, 0xf0, 0xeb, 0x4d, 0xc7, 0x0e,
  0x0d, 0x05, 0xca, 0x44, 0xd1, 0xff, 0xca, 0x4a, 0xd4, 0x04, 0xe8, 0xed,
  0x2a, 0x11, 0xdb, 0x26, 0xb1, 0x55, 0xba, 0x27, 0x28, 0x0f, 0xe2, 0xe2,
  0x3a, 0xf7, 0xe2, 0x1f, 0xf7, 0x27, 0xd7, 0x10, 0xed, 0xfe, 0x08, 0x25,
  0xb9, 0x4e, 0xde, 0x06, 0xe6, 0x56, 0xba, 0xe5, 0xbd, 0xe4, 0xf6, 0x1f,
  0x0f, 0x88, 0x1a, 0xc3, 0x08, 0x20, 0xf9, 0xf2, 0x15, 0xbb, 0x27, 0xe0,
  0x03, 0x06, 0xd7, 0xda, 0xca, 0x13, 0x0b, 0x16, 0x89, 0xe5, 0xf8, 0xf4,
  0x2e, 0xe2, 0xa8, 0xe7, 0xb7, 0xba, 0xfa, 0xda, 0xf4, 0xc1, 0x1d, 0xf0,
  0x51, 0x1c, 0xef, 0x3a, 0x00, 0x22, 0xeb, 0xd4, 0xaf, 0x32, 0x1f, 0xee,
  0x06, 0x3b, 0xf7, 0x31, 0xb5, 0xf3, 0xc2, 0xf7, 0x28, 0x0f, 0x38, 0x2a,
  0x2b, 0xf6, 0x0d, 0x25, 0xf9, 0x97, 0xcb, 0x12, 0xe5, 0xe3, 0x07, 0x18,
  0x50, 0xd2, 0x09, 0xea, 0xd6, 0x1e, 0x26, 0x07, 0x0d, 0xad, 0xda, 0x01,
  0xff, 0x5f, 0x37, 0xbe, 0x21, 0x01, 0x00, 0x52, 0x99, 0xfc, 0x22, 0x40,
  0x34, 0x0d, 0x1d, 0xf5, 0xf6, 0xd5, 0x22, 0x12, 0xd1, 0xf2, 0x0e, 0x2e,
  0xf9, 0xd5, 0x0f, 0x79, 0x07, 0x62, 0x3e, 0x19, 0x52, 0x00, 0xe1, 0x0d,
  0x08, 0x17, 0xf3, 0xcc, 0xd7, 0x0e, 0x2c, 0x2e, 0x08, 0x1e, 0x33, 0x20,
  0xd4, 0xb6, 0x19, 0xea, 0x1d, 0xf6, 0xbc, 0xc7, 0xd0, 0x04, 0x3e, 0x0f,
  0x3f, 0x00, 0xd7, 0xf7, 0x1e, 0xcd, 0x45, 0x31, 0xce, 0xd0, 0xb2, 0xb7,
  0xe9, 0xff, 0x04, 0xe5, 0x44, 0x2c, 0x40, 0x25, 0xfb, 0xd7, 0xfe, 0x27,
  0xfd, 0xd2, 0x56, 0x0f, 0x28, 0x00, 0x29, 0x13, 0x0b, 0xd5, 0x4d, 0xf7,
  0x1c, 0x53, 0x24, 0xdd, 0xdc, 0x47, 0x1b, 0xf7, 0x50, 0xf5, 0x19, 0x1f,
  0xd8, 0xde, 0x07, 0x28, 0x3d, 0xc7, 0x10, 0x53, 0xe7, 0x0d, 0x09, 0x40,
  0x3a, 0x21, 0x31, 0x31, 0x00, 0x00, 0x00, 0x00, 0x00, 0x00, 0x00, 0x00,
  0xa6, 0xff, 0xff, 0xff, 0x04, 0x00, 0x00, 0x00, 0x04, 0x00, 0x00, 0x00,
  0x31, 0x19, 0xf0, 0x3d, 0xb6, 0xff, 0xff, 0xff, 0x04, 0x00, 0x00, 0x00,
  0x3c, 0x00, 0x00, 0x00, 0x5b, 0x75, 0xc0, 0x3d, 0xd4, 0xd2, 0x15, 0x3e,
  0x76, 0x41, 0x04, 0x3d, 0x5e, 0x4f, 0x9e, 0x3d, 0xa7, 0x8b, 0x13, 0x3e,
  0x80, 0xae, 0x3f, 0x3d, 0xfa, 0xe4, 0x6a, 0x3e, 0xf5, 0x91, 0x3a, 0x3e,
  0x80, 0xc2, 0x4e, 0x3e, 0x45, 0x1e, 0x92, 0x3d, 0x08, 0x9f, 0x28, 0x3e,
  0x26, 0x3d, 0x05, 0x3e, 0xe8, 0xcf, 0xb8, 0x3d, 0x13, 0xae, 0x21, 0x3e,
  0x1b, 0xc7, 0xe8, 0x3d, 0x00, 0x00, 0x06, 0x00, 0x08, 0x00, 0x04, 0x00,
  0x06, 0x00, 0x00, 0x00, 0x04, 0x00, 0x00, 0x00, 0x78, 0x00, 0x00, 0x00,
  0xe9, 0xb5, 0xe7, 0xbb, 0xb4, 0x49, 0x85, 0x3e, 0x63, 0x79, 0x17, 0xbe,
  0x68, 0x9e, 0x97, 0x3e, 0xb3, 0xa5, 0xb7, 0xbd, 0xa4, 0x94, 0x66, 0x3e,
  0x59, 0xad, 0x2e, 0x3e, 0xba, 0x60, 0x2f, 0xbd, 0x8c, 0x6a, 0x0d, 0xbe,
  0x0c, 0xd3, 0x4c, 0x3e, 0xb7, 0xcc, 0x47, 0xbd, 0x1a, 0xff, 0x48, 0x3d,
  0xf4, 0xbf, 0x3b, 0xbd, 0x00, 0x95, 0x37, 0x3c, 0xe8, 0x4d, 0xd5, 0xbd,
  0x78, 0x63, 0xd6, 0xb7, 0x41, 0xd8, 0x7c, 0x3d, 0x89, 0xff, 0x4c, 0x3e,
  0x6c, 0x32, 0x09, 0x3d, 0xd8, 0x01, 0x86, 0x3e, 0x3b, 0x78, 0x0f, 0xbe,
  0x46, 0x56, 0xc8, 0xbd, 0x4b, 0xa5, 0x2c, 0x3e, 0x2f, 0xee, 0x9e, 0xbc,
  0x3b, 0x6f, 0x1c, 0x3c, 0x4f, 0x81, 0x39, 0x3e, 0x77, 0xd0, 0x8d, 0xbc,
  0xda, 0x7e, 0x56, 0x3e, 0x43, 0xf2, 0xef, 0xbd, 0x36, 0x32, 0xc7, 0xbd,
  0x00, 0x00, 0x00, 0x00, 0x74, 0xfa, 0xff, 0xff, 0x00, 0x00, 0x00, 0x00,
  0x00, 0x00, 0x00, 0x00, 0x00, 0x00, 0x00, 0x00, 0x84, 0xfa, 0xff, 0xff,
  0x00, 0x00, 0x00, 0x00, 0x00, 0x00, 0x00, 0x00, 0x0f, 0x00, 0x00, 0x00,
  0x4d, 0x4c, 0x49, 0x52, 0x20, 0x43, 0x6f, 0x6e, 0x76, 0x65, 0x72, 0x74,
  0x65, 0x64, 0x2e, 0x00, 0x01, 0x00, 0x00, 0x00, 0x14, 0x00, 0x00, 0x00,
  0x00, 0x00, 0x0e, 0x00, 0x18, 0x00, 0x04, 0x00, 0x08, 0x00, 0x0c, 0x00,
  0x10, 0x00, 0x14, 0x00, 0x0e, 0x00, 0x00, 0x00, 0x30, 0x01, 0x00, 0x00,
  0x24, 0x01, 0x00, 0x00, 0x18, 0x01, 0x00, 0x00, 0x14, 0x00, 0x00, 0x00,
  0x04, 0x00, 0x00, 0x00, 0x04, 0x00, 0x00, 0x00, 0x6d, 0x61, 0x69, 0x6e,
  0x00, 0x00, 0x00, 0x00, 0x04, 0x00, 0x00, 0x00, 0xc0, 0x00, 0x00, 0x00,
  0x78, 0x00, 0x00, 0x00, 0x34, 0x00, 0x00, 0x00, 0x10, 0x00, 0x00, 0x00,
  0x00, 0x00, 0x0a, 0x00, 0x10, 0x00, 0x04, 0x00, 0x08, 0x00, 0x0c, 0x00,
  0x0a, 0x00, 0x00, 0x00, 0x01, 0x00, 0x00, 0x00, 0x10, 0x00, 0x00, 0x00,
  0x04, 0x00, 0x00, 0x00, 0x01, 0x00, 0x00, 0x00, 0x0a, 0x00, 0x00, 0x00,
  0x01, 0x00, 0x00, 0x00, 0x09, 0x00, 0x00, 0x00, 0xce, 0xff, 0xff, 0xff,
  0x00, 0x00, 0x00, 0x08, 0x18, 0x00, 0x00, 0x00, 0x0c, 0x00, 0x00, 0x00,
  0x04, 0x00, 0x00, 0x00, 0x34, 0xfb, 0xff, 0xff, 0x01, 0x00, 0x00, 0x00,
  0x09, 0x00, 0x00, 0x00, 0x03, 0x00, 0x00, 0x00, 0x08, 0x00, 0x00, 0x00,
  0x06, 0x00, 0x00, 0x00, 0x03, 0x00, 0x00, 0x00, 0x00, 0x00, 0x0e, 0x00,
  0x14, 0x00, 0x00, 0x00, 0x08, 0x00, 0x0c, 0x00, 0x07, 0x00, 0x10, 0x00,
  0x0e, 0x00, 0x00, 0x00, 0x00, 0x00, 0x00, 0x08, 0x1c, 0x00, 0x00, 0x00,
  0x10, 0x00, 0x00, 0x00, 0x04, 0x00, 0x00, 0x00, 0xba, 0xff, 0xff, 0xff,
  0x00, 0x00, 0x00, 0x01, 0x01, 0x00, 0x00, 0x00, 0x08, 0x00, 0x00, 0x00,
  0x03, 0x00, 0x00, 0x00, 0x07, 0x00, 0x00, 0x00, 0x05, 0x00, 0x00, 0x00,
  0x02, 0x00, 0x00, 0x00, 0x00, 0x00, 0x0e, 0x00, 0x16, 0x00, 0x00, 0x00,
  0x08, 0x00, 0x0c, 0x00, 0x07, 0x00, 0x10, 0x00, 0x0e, 0x00, 0x00, 0x00,
  0x00, 0x00, 0x00, 0x08, 0x24, 0x00, 0x00, 0x00, 0x18, 0x00, 0x00, 0x00,
  0x0c, 0x00, 0x00, 0x00, 0x00, 0x00, 0x06, 0x00, 0x08, 0x00, 0x07, 0x00,
  0x06, 0x00, 0x00, 0x00, 0x00, 0x00, 0x00, 0x01, 0x01, 0x00, 0x00, 0x00,
  0x07, 0x00, 0x00, 0x00, 0x03, 0x00, 0x00, 0x00, 0x00, 0x00, 0x00, 0x00,
  0x04, 0x00, 0x00, 0x00, 0x01, 0x00, 0x00, 0x00, 0x01, 0x00, 0x00, 0x00,
  0x0a, 0x00, 0x00, 0x00, 0x01, 0x00, 0x00, 0x00, 0x00, 0x00, 0x00, 0x00,
  0x0b, 0x00, 0x00, 0x00, 0xe8, 0x03, 0x00, 0x00, 0x74, 0x03, 0x00, 0x00,
  0x04, 0x03, 0x00, 0x00, 0xa4, 0x02, 0x00, 0x00, 0x30, 0x02, 0x00, 0x00,
  0xd8, 0x01, 0x00, 0x00, 0x90, 0x01, 0x00, 0x00, 0x1c, 0x01, 0x00, 0x00,
  0xa8, 0x00, 0x00, 0x00, 0x4c, 0x00, 0x00, 0x00, 0x04, 0x00, 0x00, 0x00,
  0x58, 0xfc, 0xff, 0xff, 0x34, 0x00, 0x00, 0x00, 0x0b, 0x00, 0x00, 0x00,
  0x1c, 0x00, 0x00, 0x00, 0x14, 0x00, 0x00, 0x00, 0x04, 0x00, 0x00, 0x00,
  0x02, 0x00, 0x00, 0x00, 0xff, 0xff, 0xff, 0xff, 0x01, 0x00, 0x00, 0x00,
  0x44, 0xfc, 0xff, 0xff, 0x08, 0x00, 0x00, 0x00, 0x49, 0x64, 0x65, 0x6e,
  0x74, 0x69, 0x74, 0x79, 0x00, 0x00, 0x00, 0x00, 0x02, 0x00, 0x00, 0x00,
  0x01, 0x00, 0x00, 0x00, 0x01, 0x00, 0x00, 0x00, 0x9c, 0xfc, 0xff, 0xff,
  0x48, 0x00, 0x00, 0x00, 0x0a, 0x00, 0x00, 0x00, 0x1c, 0x00, 0x00, 0x00,
  0x14, 0x00, 0x00, 0x00, 0x04, 0x00, 0x00, 0x00, 0x02, 0x00, 0x00, 0x00,
  0xff, 0xff, 0xff, 0xff, 0x01, 0x00, 0x00, 0x00, 0x88, 0xfc, 0xff, 0xff,
  0x1c, 0x00, 0x00, 0x00, 0x73, 0x65, 0x71, 0x75, 0x65, 0x6e, 0x74, 0x69,
  0x61, 0x6c, 0x5f, 0x32, 0x2f, 0x64, 0x65, 0x6e, 0x73, 0x65, 0x5f, 0x38,
  0x2f, 0x42, 0x69, 0x61, 0x73, 0x41, 0x64, 0x64, 0x00, 0x00, 0x00, 0x00,
  0x02, 0x00, 0x00, 0x00, 0x01, 0x00, 0x00, 0x00, 0x01, 0x00, 0x00, 0x00,
  0xf4, 0xfc, 0xff, 0xff, 0x60, 0x00, 0x00, 0x00, 0x09, 0x00, 0x00, 0x00,
  0x1c, 0x00, 0x00, 0x00, 0x14, 0x00, 0x00, 0x00, 0x04, 0x00, 0x00, 0x00,
  0x02, 0x00, 0x00, 0x00, 0xff, 0xff, 0xff, 0xff, 0x0f, 0x00, 0x00, 0x00,
  0xe0, 0xfc, 0xff, 0xff, 0x36, 0x00, 0x00, 0x00, 0x73, 0x65, 0x71, 0x75,
  0x65, 0x6e, 0x74, 0x69, 0x61, 0x6c, 0x5f, 0x32, 0x2f, 0x64, 0x65, 0x6e,
  0x73, 0x65, 0x5f, 0x37, 0x2f, 0x52, 0x65, 0x6c, 0x75, 0x3b, 0x73, 0x65,
  0x71, 0x75, 0x65, 0x6e, 0x74, 0x69, 0x61, 0x6c, 0x5f, 0x32, 0x2f, 0x64,
  0x65, 0x6e, 0x73, 0x65, 0x5f, 0x37, 0x2f, 0x42, 0x69, 0x61, 0x73, 0x41,
  0x64, 0x64, 0x00, 0x00, 0x02, 0x00, 0x00, 0x00, 0x01, 0x00, 0x00, 0x00,
  0x0f, 0x00, 0x00, 0x00, 0x64, 0xfd, 0xff, 0xff, 0x60, 0x00, 0x00, 0x00,
  0x08, 0x00, 0x00, 0x00, 0x1c, 0x00, 0x00, 0x00, 0x14, 0x00, 0x00, 0x00,
  0x04, 0x00, 0x00, 0x00, 0x02, 0x00, 0x00, 0x00, 0xff, 0xff, 0xff, 0xff,
  0x1e, 0x00, 0x00, 0x00, 0x50, 0xfd, 0xff, 0xff, 0x36, 0x00, 0x00, 0x00,
  0x73, 0x65, 0x71, 0x75, 0x65, 0x6e, 0x74, 0x69, 0x61, 0x6c, 0x5f, 0x32,
  0x2f, 0x64, 0x65, 0x6e, 0x73, 0x65, 0x5f, 0x36, 0x2f, 0x52, 0x65, 0x6c,
  0x75, 0x3b, 0x73, 0x65, 0x71, 0x75, 0x65, 0x6e, 0x74, 0x69, 0x61, 0x6c,
  0x5f, 0x32, 0x2f, 0x64, 0x65, 0x6e, 0x73, 0x65, 0x5f, 0x36, 0x2f, 0x42,
  0x69, 0x61, 0x73, 0x41, 0x64, 0x64, 0x00, 0x00, 0x02, 0x00, 0x00, 0x00,
  0x01, 0x00, 0x00, 0x00, 0x1e, 0x00, 0x00, 0x00, 0x3e, 0xfe, 0xff, 0xff,
  0x34, 0x00, 0x00, 0x00, 0x07, 0x00, 0x00, 0x00, 0x0c, 0x00, 0x00, 0x00,
  0x04, 0x00, 0x00, 0x00, 0xb0, 0xfd, 0xff, 0xff, 0x1b, 0x00, 0x00, 0x00,
  0x73, 0x65, 0x71, 0x75, 0x65, 0x6e, 0x74, 0x69, 0x61, 0x6c, 0x5f, 0x32,
  0x2f, 0x64, 0x65, 0x6e, 0x73, 0x65, 0x5f, 0x38, 0x2f, 0x4d, 0x61, 0x74,
  0x4d, 0x75, 0x6c, 0x00, 0x02, 0x00, 0x00, 0x00, 0x01, 0x00, 0x00, 0x00,
  0x0f, 0x00, 0x00, 0x00, 0x82, 0xfe, 0xff, 0xff, 0x34, 0x00, 0x00, 0x00,
  0x06, 0x00, 0x00, 0x00, 0x0c, 0x00, 0x00, 0x00, 0x04, 0x00, 0x00, 0x00,
  0xf4, 0xfd, 0xff, 0xff, 0x1b, 0x00, 0x00, 0x00, 0x73, 0x65, 0x71, 0x75,
  0x65, 0x6e, 0x74, 0x69, 0x61, 0x6c, 0x5f, 0x32, 0x2f, 0x64, 0x65, 0x6e,
  0x73, 0x65, 0x5f, 0x37, 0x2f, 0x4d, 0x61, 0x74, 0x4d, 0x75, 0x6c, 0x00,
  0x02, 0x00, 0x00, 0x00, 0x0f, 0x00, 0x00, 0x00, 0x1e, 0x00, 0x00, 0x00,
  0x00, 0x00, 0x0e, 0x00, 0x18, 0x00, 0x08, 0x00, 0x07, 0x00, 0x0c, 0x00,
  0x10, 0x00, 0x14, 0x00, 0x0e, 0x00, 0x00, 0x00, 0x00, 0x00, 0x00, 0x09,
  0x5c, 0x00, 0x00, 0x00, 0x05, 0x00, 0x00, 0x00, 0x34, 0x00, 0x00, 0x00,
  0x10, 0x00, 0x00, 0x00, 0x0c, 0x00, 0x0c, 0x00, 0x00, 0x00, 0x00, 0x00,
  0x04, 0x00, 0x08, 0x00, 0x0c, 0x00, 0x00, 0x00, 0x14, 0x00, 0x00, 0x00,
  0x04, 0x00, 0x00, 0x00, 0x01, 0x00, 0x00, 0x00, 0x00, 0x00, 0x00, 0x00,
  0x00, 0x00, 0x00, 0x00, 0x01, 0x00, 0x00, 0x00, 0xca, 0x80, 0x46, 0x3b,
  0x1b, 0x00, 0x00, 0x00, 0x73, 0x65, 0x71, 0x75, 0x65, 0x6e, 0x74, 0x69,
  0x61, 0x6c, 0x5f, 0x32, 0x2f, 0x64, 0x65, 0x6e, 0x73, 0x65, 0x5f, 0x36,
  0x2f, 0x4d, 0x61, 0x74, 0x4d, 0x75, 0x6c, 0x00, 0x02, 0x00, 0x00, 0x00,
  0x1e, 0x00, 0x00, 0x00, 0x5a, 0x00, 0x00, 0x00, 0x46, 0xff, 0xff, 0xff,
  0x50, 0x00, 0x00, 0x00, 0x04, 0x00, 0x00, 0x00, 0x0c, 0x00, 0x00, 0x00,
  0x04, 0x00, 0x00, 0x00, 0xb8, 0xfe, 0xff, 0xff, 0x34, 0x00, 0x00, 0x00,
  0x73, 0x65, 0x71, 0x75, 0x65, 0x6e, 0x74, 0x69, 0x61, 0x6c, 0x5f, 0x32,
  0x2f, 0x64, 0x65, 0x6e, 0x73, 0x65, 0x5f, 0x38, 0x2f, 0x42, 0x69, 0x61,
  0x73, 0x41, 0x64, 0x64, 0x2f, 0x52, 0x65, 0x61, 0x64, 0x56, 0x61, 0x72,
  0x69, 0x61, 0x62, 0x6c, 0x65, 0x4f, 0x70, 0x2f, 0x72, 0x65, 0x73, 0x6f,
  0x75, 0x72, 0x63, 0x65, 0x00, 0x00, 0x00, 0x00, 0x01, 0x00, 0x00, 0x00,
  0x01, 0x00, 0x00, 0x00, 0xa2, 0xff, 0xff, 0xff, 0x50, 0x00, 0x00, 0x00,
  0x03, 0x00, 0x00, 0x00, 0x0c, 0x00, 0x00, 0x00, 0x04, 0x00, 0x00, 0x00,
  0x14, 0xff, 0xff, 0xff, 0x34, 0x00, 0x00, 0x00, 0x73, 0x65, 0x71, 0x75,
  0x65, 0x6e, 0x74, 0x69, 0x61, 0x6c, 0x5f, 0x32, 0x2f, 0x64, 0x65, 0x6e,
  0x73, 0x65, 0x5f, 0x37, 0x2f, 0x42, 0x69, 0x61, 0x73, 0x41, 0x64, 0x64,
  0x2f, 0x52, 0x65, 0x61, 0x64, 0x56, 0x61, 0x72, 0x69, 0x61, 0x62, 0x6c,
  0x65, 0x4f, 0x70, 0x2f, 0x72, 0x65, 0x73, 0x6f, 0x75, 0x72, 0x63, 0x65,
  0x00, 0x00, 0x00, 0x00, 0x01, 0x00, 0x00, 0x00, 0x0f, 0x00, 0x00, 0x00,
  0x00, 0x00, 0x0e, 0x00, 0x14, 0x00, 0x04, 0x00, 0x00, 0x00, 0x08, 0x00,
  0x0c, 0x00, 0x10, 0x00, 0x0e, 0x00, 0x00, 0x00, 0x50, 0x00, 0x00, 0x00,
  0x02, 0x00, 0x00, 0x00, 0x0c, 0x00, 0x00, 0x00, 0x04, 0x00, 0x00, 0x00,
  0x80, 0xff, 0xff, 0xff, 0x34, 0x00, 0x00, 0x00, 0x73, 0x65, 0x71, 0x75,
  0x65, 0x6e, 0x74, 0x69, 0x61, 0x6c, 0x5f, 0x32, 0x2f, 0x64, 0x65, 0x6e,
  0x73, 0x65, 0x5f, 0x36, 0x2f, 0x42, 0x69, 0x61, 0x73, 0x41, 0x64, 0x64,
  0x2f, 0x52, 0x65, 0x61, 0x64, 0x56, 0x61, 0x72, 0x69, 0x61, 0x62, 0x6c,
  0x65, 0x4f, 0x70, 0x2f, 0x72, 0x65, 0x73, 0x6f, 0x75, 0x72, 0x63, 0x65,
  0x00, 0x00, 0x00, 0x00, 0x01, 0x00, 0x00, 0x00, 0x1e, 0x00, 0x00, 0x00,
  0x14, 0x00, 0x18, 0x00, 0x04, 0x00, 0x00, 0x00, 0x08, 0x00, 0x0c, 0x00,
  0x10, 0x00, 0x00, 0x00, 0x00, 0x00, 0x14, 0x00, 0x14, 0x00, 0x00, 0x00,
  0x3c, 0x00, 0x00, 0x00, 0x01, 0x00, 0x00, 0x00, 0x20, 0x00, 0x00, 0x00,
  0x18, 0x00, 0x00, 0x00, 0x04, 0x00, 0x00, 0x00, 0x02, 0x00, 0x00, 0x00,
  0xff, 0xff, 0xff, 0xff, 0x5a, 0x00, 0x00, 0x00, 0x04, 0x00, 0x04, 0x00,
  0x04, 0x00, 0x00, 0x00, 0x0d, 0x00, 0x00, 0x00, 0x64, 0x65, 0x6e, 0x73,
  0x65, 0x5f, 0x36, 0x5f, 0x69, 0x6e, 0x70, 0x75, 0x74, 0x00, 0x00, 0x00,
  0x02, 0x00, 0x00, 0x00, 0x01, 0x00, 0x00, 0x00, 0x5a, 0x00, 0x00, 0x00,
  0x02, 0x00, 0x00, 0x00, 0x20, 0x00, 0x00, 0x00, 0x0c, 0x00, 0x00, 0x00,
  0x00, 0x00, 0x06, 0x00, 0x06, 0x00, 0x05, 0x00, 0x06, 0x00, 0x00, 0x00,
  0x00, 0x0e, 0x0a, 0x00, 0x0c, 0x00, 0x07, 0x00, 0x00, 0x00, 0x08, 0x00,
  0x0a, 0x00, 0x00, 0x00, 0x00, 0x00, 0x00, 0x09, 0x03, 0x00, 0x00, 0x00
};
unsigned int final_dynamic_range_quantization_tflite_len = 6624;
